{"<s>":0,"<pad>":1,"</s>":2,"<unk>":3,"<mask>":4,"!":5,"\"":6,"#":7,"$":8,"%":9,"&":10,"'":11,"(":12,")":13,"*":14,"+":15,",":16,"-":17,".":18,"/":19,"0":20,"1":21,"2":22,"3":23,"4":24,"5":25,"6":26,"7":27,"8":28,"9":29,":":30,";":31,"<":32,"=":33,">":34,"?":35,"@":36,"A":37,"B":38,"C":39,"D":40,"E":41,"F":42,"G":43,"H":44,"I":45,"J":46,"K":47,"L":48,"M":49,"N":50,"O":51,"P":52,"Q":53,"R":54,"S":55,"T":56,"U":57,"V":58,"W":59,"X":60,"Y":61,"Z":62,"[":63,"\\":64,"]":65,"^":66,"_":67,"`":68,"a":69,"b":70,"c":71,"d":72,"e":73,"f":74,"g":75,"h":76,"i":77,"j":78,"k":79,"l":80,"m":81,"n":82,"o":83,"p":84,"q":85,"r":86,"s":87,"t":88,"u":89,"v":90,"w":91,"x":92,"y":93,"z":94,"{":95,"|":96,"}":97,"~":98,"¡":99,"¢":100,"£":101,"¤":102,"¥":103,"¦":104,"§":105,"¨":106,"©":107,"ª":108,"«":109,"¬":110,"®":111,"¯":112,"°":113,"±":114,"²":115,"³":116,"´":117,"µ":118,"¶":119,"·":120,"¸":121,"¹":122,"º":123,"»":124,"¼":125,"½":126,"¾":127,"¿":128,"À":129,"Á":130,"Â":131,"Ã":132,"Ä":133,"Å":134,"Æ":135,"Ç":136,"È":137,"É":138,"Ê":139,"Ë":140,"Ì":141,"Í":142,"Î":143,"Ï":144,"Ð":145,"Ñ":146,"Ò":147,"Ó":148,"Ô":149,"Õ":150,"Ö":151,"×":152,"Ø":153,"Ù":154,"Ú":155,"Û":156,"Ü":157,"Ý":158,"Þ":159,"ß":160,"à":161,"á":162,"â":163,"ã":164,"ä":165,"å":166,"æ":167,"ç":168,"è":169,"é":170,"ê":171,"ë":172,"ì":173,"í":174,"î":175,"ï":176,"ð":177,"ñ":178,"ò":179,"ó":180,"ô":181,"õ":182,"ö":183,"÷":184,"ø":185,"ù":186,"ú":187,"û":188,"ü":189,"ý":190,"þ":191,"ÿ":192,"Ā":193,"ā":194,"Ă":195,"ă":196,"Ą":197,"ą":198,"Ć":199,"ć":200,"Ĉ":201,"ĉ":202,"Ċ":203,"ċ":204,"Č":205,"č":206,"Ď":207,"ď":208,"Đ":209,"đ":210,"Ē":211,"ē":212,"Ĕ":213,"ĕ":214,"Ė":215,"ė":216,"Ę":217,"ę":218,"Ě":219,"ě":220,"Ĝ":221,"ĝ":222,"Ğ":223,"ğ":224,"Ġ":225,"ġ":226,"Ģ":227,"ģ":228,"Ĥ":229,"ĥ":230,"Ħ":231,"ħ":232,"Ĩ":233,"ĩ":234,"Ī":235,"ī":236,"Ĭ":237,"ĭ":238,"Į":239,"į":240,"İ":241,"ı":242,"Ĳ":243,"ĳ":244,"Ĵ":245,"ĵ":246,"Ķ":247,"ķ":248,"ĸ":249,"Ĺ":250,"ĺ":251,"Ļ":252,"ļ":253,"Ľ":254,"ľ":255,"Ŀ":256,"ŀ":257,"Ł":258,"ł":259,"Ń":260,"ĠĠ":261,"er":262,"in":263,"Ġt":264,"or":265,"on":266,"at":267,"es":268,"Ġa":269,"he":270,"re":271,"le":272,"Ġs":273,"ĠĠĠĠ":274,"en":275,"Ġc":276,"is":277,"Ġthe":278,"it":279,"ion":280,"ro":281,"an":282,"ing":283,"Ġf":284,"ed":285,"ct":286,"al":287,"ĠĠĠ":288,"Ġw":289,"Ġto":290,"av":291,"de":292,"ar":293,"Ġb":294,"Ġp":295,"ce":296,"Ġin":297,"un":298,"as":299,"li":300,"il":301,"et":302,"pp":303,"lo":304,"ut":305,"Ġm":306,"ent":307,"ul":308,"Ġn":309,"ava":310,"st":311,"Ġo":312,"am":313,"java":314,"ter":315,"Ġan":316,"om":317,"se":318,"--":319,"Ġd":320,"Ġre":321,"ch":322,"ation":323,"Ġor":324,"ĠĠĠĠĠĠĠĠ":325,"ur":326,"ĠI":327,"ĠT":328,"ec":329,"ess":330,"ho":331,"ĠS":332,"ate":333,"ew":334,"ad":335,"Ġth":336,"id":337,"ag":338,"Ġis":339,"ot":340,"Ġand":341,"pt":342,"est":343,"Ġorg":344,"ck":345,"us":346,"Ġh":347,"Ġ1":348,"ex":349,"00":350,"ect":351,"Ġfor":352,"ver":353,"im":354,"ab":355,"um":356,"ork":357,"Ġof":358,"Ġ2":359,"ic":360,"Ġ(":361,"ĠA":362,"ode":363,"Ġbe":364,"ve":365,"ist":366,"Ġpro":367,"Ġon":368,"Ġcon":369,"pl":370,"ĠC":371,"ig":372,"ol":373,"em":374,"Ġst":375,"and":376,"ly":377,"Ġ{":378,"Ġat":379,"vi":380,"ith":381,"Ġ\"":382,"age":383,"Ġde":384,"Ġr":385,"ort":386,"up":387,"ile":388,"lip":389,"od":390,"lipse":391,"ĠR":392,"cess":393,"if":394,"ain":395,"ore":396,"Ġcom":397,"01":398,"ap":399,"ult":400,"ow":401,"ers":402,"qu":403,"----":404,"uld":405,"ke":406,"Ġnot":407,"os":408,"ac":409,"Ġl":410,"el":411,"act":412,"Ġ-":413,"Ġ'":414,"Ġg":415,"tt":416,"eclipse":417,"Ġit":418,"able":419,"ild":420,"ri":421,"Ex":422,"ator":423,"Ġwith":424,"hen":425,"Ġ[":426,"lic":427,"ep":428,"ĠP":429,"ay":430,"Ġex":431,"Ġsho":432,"Ġthat":433,"Ġ0":434,"pr":435,"uild":436,"ttp":437,"ment":438,"ack":439,"our":440,"ject":441,"Ġus":442,"ĠĠĠĠĠ":443,"ram":444,"Con":445,"Ġal":446,"ction":447,"ave":448,"In":449,"//":450,"ser":451,"app":452,"art":453,"oc":454,"ĠD":455,"ani":456,"cpp":457,"ĠM":458,"rom":459,"Ġ3":460,"ption":461,"ule":462,"ass":463,"anium":464,"itanium":465,"Ġas":466,"10":467,"Ġlo":468,"ue":469,"St":470,"pro":471,"ob":472,"ework":473,"ramework":474,"dd":475,"op":476,"get":477,"..":478,"ug":479,"Ġ*":480,"tern":481,"run":482,"reate":483,"nd":484,"ame":485,"ĠW":486,"end":487,"ple":488,"Ġshould":489,"11":490,"ud":491,"ind":492,"code":493,"ure":494,");":495,"ang":496,"ler":497,"per":498,"ĠĠĠĠĠĠĠĠĠĠĠĠĠĠĠĠ":499,"for":500,"fa":501,"Ġv":502,"Ġe":503,"Ġfrom":504,"ror":505,"und":506,"ternal":507,"ĠF":508,"iz":509,"Pro":510,"vent":511,"pring":512,"all":513,"ase":514,"ache":515,"ill":516,"str":517,"com":518,"bo":519,"12":520,"ata":521,"Ġthis":522,"Ġwe":523,"Ġ=":524,"ext":525,"con":526,"hod":527,"ethod":528,"form":529,"ub":530,"ory":531,"Ġapp":532,"lass":533,"io":534,"ated":535,"nt":536,"://":537,"int":538,"th":539,"ĠSt":540,"UI":541,"ime":542,"fig":543,"13":544,"14":545,"Re":546,"low":547,"22":548,"roid":549,"core":550,"App":551,"ĠE":552,"ere":553,"ir":554,"ire":555,"ive":556,"internal":557,"Ġwh":558,"ilter":559,"ail":560,"ĠN":561,"spring":562,"Ġare":563,"::":564,"ry":565,"vice":566,"framework":567,"Ġhttp":568,"ecut":569,"Ġcont":570,"Ġ/":571,"ity":572,"50":573,"Ġdo":574,"gr":575,"Ġres":576,"Ġup":577,"De":578,"17":579,"ine":580,"lect":581,"use":582,"fer":583,"Ġtest":584,"essage":585,"lib":586,"lication":587,"indow":588,"upp":589,"ĠTh":590,"18":591,"Im":592,"ard":593,"ĠThe":594,"Ġsc":595,"Cont":596,"odule":597,"--------":598,"Ġse":599,"port":600,"ĠL":601,"sion":602,"fault":603,"iv":604,"ial":605,"upport":606,"read":607,"ception":608,"04":609,"yp":610,"loy":611,"eed":612,"Ġim":613,"Ġcan":614,"Ġwill":615,"Ġle":616,"ĠO":617,"Ġby":618,"16":619,"55":620,"error":621,"nect":622,"og":623,"ĠJ":624,"Ġ:":625,"Ġfile":626,"19":627,"atch":628,"ht":629,"=\"":630,"ource":631,"Ġ4":632,"Ġwhen":633,"udio":634,"Vi":635,"09":636,"Ch":637,"ccess":638,"ace":639,"ener":640,"rent":641,"Ġj":642,"Ġnew":643,"aster":644,"View":645,"Ġ<":646,"aun":647,"springframework":648,"view":649,"org":650,"06":651,"Ġbut":652,"ble":653,"so":654,"ok":655,"Ġadd":656,"23":657,"RO":658,"Ġinst":659,"stract":660,"ui":661,"ĠB":662,"Filter":663,"bstract":664,"Ġif":665,"Ġch":666,"aunch":667,"()":668,"ies":669,"to":670,"Ġ--":671,"js":672,"apache":673,"Ġhave":674,"ĠTi":675,"Ġneed":676,"26":677,"Ġproject":678,"ition":679,"08":680,"idget":681,"ph":682,"Work":683,"Abstract":684,"ĠH":685,"15":686,"ER":687,"ml":688,"ĠU":689,"',":690,"Ġrun":691,"Ġ|":692,"Ġerror":693,"44":694,"39":695,"ces":696,"==":697,"lave":698,"28":699,"IN":700,"ask":701,"Event":702,"27":703,"tic":704,"ream":705,"Ġjava":706,"Method":707,"Ġset":708,"urrent":709,"ĠThis":710,"ules":711,"let":712,"ath":713,"Ġbuild":714,"oke":715,"ome":716,"ype":717,"\",":718,"play":719,"0000":720,"24":721,"iles":722,"ans":723,"):":724,"du":725,"29":726,"ould":727,"Ġ}":728,"db":729,"ual":730,"time":731,"isplay":732,"25":733,"serv":734,"ĠĠĠĠĠĠĠĠĠ":735,"Ġlog":736,"Ġwork":737,"Ġy":738,"ĠĊ":739,"Th":740,"ument":741,"quest":742,"ating":743,"Impl":744,"Ġuse":745,"ĠTitanium":746,"38":747,"ust":748,"OS":749,"ary":750,"Ġun":751,"cept":752,"Exception":753,"po":754,"Ġ201":755,"Ġser":756,"Ġi":757,"sw":758,"Application":759,"ĠG":760,"create":761,"56":762,"eb":763,"yst":764,"ĠIn":765,"Ġaut":766,"ainer":767,"version":768,"cri":769,"Ser":770,"gist":771,"cl":772,"mo":773,"anag":774,"Ġ#":775,"47":776,"test":777,"Ġuser":778,"over":779,"date":780,"own":781,"pert":782,"ence":783,"Ġconfig":784,"58":785,"ite":786,"voke":787,"**":788,"vel":789,"07":790,"Ġtr":791,"99":792,"heck":793,"ys":794,"Test":795,"}}":796,"out":797,"57":798,"unction":799,"loc":800,"Run":801,"mand":802,"Ġall":803,"Ġdoes":804,"hentic":805,"row":806,"Ġpl":807,"Hand":808,"02":809,"34":810,"pect":811,").":812,"DK":813,"PI":814,"res":815,"one":816,"'t":817,"tr":818,"Ġrep":819,"nection":820,"ll":821,"Ġmaster":822,"\":":823,"celer":824,"apt":825,"gro":826,"itor":827,"lica":828,"min":829,"hed":830,"ff":831,"ord":832,"ight":833,"Message":834,"invoke":835,"celerator":836,"ip":837,"odules":838,"Ġval":839,"pon":840,"ystem":841,"Ġsp":842,"ench":843,"ann":844,"Ġ{{":845,"ST":846,"Ġfol":847,"ich":848,"Ġen":849,"bench":850,"ou":851,"Ġdep":852,"swt":853,"uration":854,"FO":855,"Ġcode":856,"36":857,"pen":858,"Workbench":859,"Build":860,"ative":861,"'s":862,"log":863,"Ġvar":864,"ĠStudio":865,"ant":866,"Ġget":867,"46":868,"http":869,"Ġli":870,"ndroid":871,"cc":872,"ĠEx":873,"red":874,"ĠX":875,"load":876,"ink":877,"do":878,"ROR":879,"ĠĠĉ":880,"process":881,"48":882,"ning":883,"yn":884,"ref":885,"20":886,"59":887,"put":888,"anager":889,"ix":890,"ale":891,"ake":892,"->":893,"esos":894,"Ġsupport":895,"ocument":896,"Ġhas":897,"79":898,"ĠRes":899,"Ġout":900,"ĠRe":901,"Ġusing":902,"ast":903,"ach":904,"lick":905,"Ġmodule":906,"ign":907,"Ti":908,"ber":909,"appcelerator":910,"Ġhttps":911,"fo":912,"DE":913,"fin":914,"Ġwhich":915,"Ġlevel":916,"Ġchang":917,"Us":918,"egr":919,"Ġversion":920,"ance":921,"xd":922,"widget":923,"List":924,"but":925,"Ġ+":926,"Com":927,"ĠSDK":928,"../":929,"53":930,"Res":931,"add":932,"build":933,"ources":934,"Ġslave":935,"plement":936,"ugin":937,"Ġso":938,"xml":939,"Ġfunction":940,"Ġyou":941,"val":942,"Ġprocess":943,"Ġatt":944,"arch":945,"name":946,"irect":947,"201":948,"der":949,"lient":950,"titanium":951,"ms":952,"ana":953,"Un":954,"ecutor":955,"work":956,"ĠĠĊ":957,"Ġdata":958,"Ġauthentic":959,"ton":960,"ĠPro":961,"Ġresult":962,"ERROR":963,"ns":964,"Ġfail":965,"Ġname":966,"tercept":967,"widgets":968,"Users":969,"php":970,"64":971,"Ġiss":972,"ull":973,"pected":974,"point":975,"ific":976,"pm":977,"eld":978,"clipse":979,"Ġone":980,"rror":981,"ield":982,"Ġho":983,"Ġshow":984,"bject":985,"gistry":986,"isp":987,"Ġ>":988,"alend":989,"Ġno":990,"Ġpos":991,"led":992,"Ġonly":993,"Ġret":994,"ession":995,"ader":996,"Ġlist":997,"86":998,"Ġclass":999,"dex":1000,"Window":1001,"Ġlike":1002,"32":1003,"Handler":1004,"ens":1005,"ribut":1006,"Ġqu":1007,"ĠĠĠĠĠĠĠĠĠĠĠĠĠĠĠĠĠĠĠĠĠĠĠĠĠĠĠĠĠĠĠĠ":1008,"eps":1009,"ron":1010,"ates":1011,"Default":1012,"Ġwould":1013,"Manager":1014,"37":1015,"ĠRep":1016,"Add":1017,"egration":1018,"Access":1019,"Titanium":1020,"30":1021,"lang":1022,"ĠCon":1023,"ting":1024,"util":1025,"Thread":1026,"ersist":1027,"Ġdefault":1028,"ib":1029,"ean":1030,"ample":1031,"fter":1032,"INFO":1033,"annel":1034,"Ġpropert":1035,"ispatch":1036,"Ġcreate":1037,"Ġinto":1038,"xy":1039,"Ġline":1040,"Eclipse":1041,"Ġcol":1042,"...":1043,"bug":1044,"Ġ18":1045,"Ġstart":1046,"ctual":1047,"ML":1048,"Ġcre":1049,"ference":1050,"Ġcall":1051,"duce":1052,"cket":1053,"ther":1054,"Ġ5":1055,"31":1056,"lowing":1057,"AS":1058,"Ġrec":1059,"Ġreplica":1060,"ĠWe":1061,"ĠResult":1062,"face":1063,"Ġsome":1064,"Action":1065,"ages":1066,"Ġleveldb":1067,"Ġar":1068,"('":1069,"dk":1070,"ring":1071,"Ġstat":1072,"----------------":1073,"py":1074,"hand":1075,"35":1076,"actory":1077,"ES":1078,"ĠĠĠĠĠĠĠ":1079,"ize":1080,"The":1081,"hpp":1082,"no":1083,"leg":1084,"Ġthere":1085,"ialog":1086,"Process":1087,"ak":1088,"Ġsu":1089,"76":1090,"Ġrequ":1091,"sp":1092,"ĠV":1093,"atform":1094,"ss":1095,"ote":1096,"74":1097,"android":1098,"Native":1099,"ux":1100,"rol":1101,"obile":1102,"Ġback":1103,"Ġaction":1104,"Ġme":1105,"ger":1106,"Accessor":1107,"ash":1108,"Ġoption":1109,"Ġfiles":1110,"Ġwas":1111,"Ġdis":1112,"Lo":1113,"cont":1114,"mon":1115,"Ġmore":1116,"runtime":1117,"Ġhe":1118,"Ġ!":1119,"====":1120,"Ġcheck":1121,"auncher":1122,"Ġ@":1123,"ical":1124,"lease":1125,"Ġcurrent":1126,"Ġtype":1127,"pos":1128,"atab":1129,"ĠAndroid":1130,"AC":1131,"49":1132,"aptana":1133,"Ġtask":1134,"AR":1135,"Ġany":1136,"51":1137,"ues":1138,"ude":1139,"Ġevent":1140,"kn":1141,"Class":1142,"empt":1143,"Ġjob":1144,"Ġ$":1145,"MethodAccessor":1146,"empl":1147,"si":1148,"Ġti":1149,"velo":1150,"modules":1151,"unt":1152,"ments":1153,"../../":1154,"ee":1155,"ool":1156,"Ġsim":1157,"({":1158,"Ġmessage":1159,"sing":1160,"ations":1161,"Ġpar":1162,"Bean":1163,"orre":1164,"reflect":1165,"ĠIt":1166,"Ġtests":1167,"terceptor":1168,"__":1169,"88":1170,"Ġpre":1171,"Ġtime":1172,"Display":1173,"ify":1174,"Ġserver":1175,"Chain":1176,"Ġabo":1177,"03":1178,"Listener":1179,"MethodAccessorImpl":1180,"ft":1181,"ear":1182,"Ġsame":1183,"Ġview":1184,"Ġdirect":1185,"ceiv":1186,"Service":1187,"Ġ16":1188,"Ġrequest":1189,"Ġspec":1190,"Ġ});":1191,"sc":1192,"Ġ10":1193,"Ġfollowing":1194,"Ġ15":1195,"ync":1196,"ww":1197,"eat":1198,"Ġgener":1199,"Ġused":1200,"ful":1201,"Ġselect":1202,"Ġper":1203,"ulator":1204,"urn":1205,"vid":1206,"itle":1207,"000":1208,"Ġthen":1209,"Ġke":1210,"enc":1211,"Ġincl":1212,"API":1213,"Ġinstall":1214,"user":1215,"ponent":1216,"ery":1217,"BU":1218,"are":1219,"ian":1220,"ost":1221,"Ġwin":1222,"roup":1223,"ox":1224,"Ġissue":1225,"ecute":1226,"oth":1227,"Ġloc":1228,"21":1229,"itory":1230,"Ġdeploy":1231,"Ġalso":1232,"cript":1233,"uct":1234,"Main":1235,"ackage":1236,"ĠĠĠĠĠĠ":1237,"Ġed":1238,"Widget":1239,"mesos":1240,"set":1241,"Inv":1242,"ceived":1243,"back":1244,"iled":1245,"ound":1246,"Executor":1247,"Ġexist":1248,"As":1249,"ON":1250,"Context":1251,"af":1252,"rc":1253,"Ġvalue":1254,"umber":1255,"Ġover":1256,"BUG":1257,"Pl":1258,"Ġsun":1259,"alse":1260,"Ġwr":1261,"orrect":1262,"54":1263,"LE":1264,"Ġro":1265,"aw":1266,"Ġdes":1267,"not":1268,"Ġimplement":1269,"Ġcommand":1270,"84":1271,"ql":1272,"lover":1273,"ourse":1274,"be":1275,"Ġ//":1276,"Ġlib":1277,"Ġupd":1278,"node":1279,"66":1280,"alys":1281,"Ġstatus":1282,"33":1283,"integration":1284,"Ġrequire":1285,"Ġtab":1286,"boo":1287,"ctiv":1288,"Ġav":1289,"Ġend":1290,"local":1291,"Ġreport":1292,"data":1293,"05":1294,"Ġconfiguration":1295,"lassian":1296,"mit":1297,"atabase":1298,"Ġframework":1299,"Ġafter":1300,"Ġ19":1301,"ocation":1302,"Val":1303,"group":1304,"Ġnode":1305,"),":1306,"lob":1307,"(*":1308,"Ġsee":1309,"sst":1310,"amboo":1311,"ugh":1312,"Ġfield":1313,"ices":1314,"Ġother":1315,"atlassian":1316,"Ġ23":1317,"alysis":1318,"Ġdocument":1319,"ailed":1320,"Ġstream":1321,"DEBUG":1322,"indows":1323,"Ġag":1324,"emplate":1325,"ĠExpected":1326,"Factory":1327,"Ġopen":1328,"Ġremo":1329,"Ġdisplay":1330,"rary":1331,"ange":1332,"EN":1333,"ground":1334,"ifi":1335,"gis":1336,"Ġmethod":1337,"Module":1338,"Ġdet":1339,"Ġscre":1340,"(*):":1341,"ĠPersist":1342,"Ġposition":1343,"Up":1344,"Deleg":1345,"dir":1346,"Ġthem":1347,"odel":1348,"Ġconnection":1349,"Ġgo":1350,"Ġpart":1351,"</":1352,"ax":1353,"mule":1354,"ov":1355,"Ġ7":1356,"atal":1357,"izard":1358,"Container":1359,"action":1360,"67":1361,"talend":1362,"Create":1363,"ause":1364,"finition":1365,"ĠJS":1366,"ĠiOS":1367,"Task":1368,"registry":1369,"known":1370,"Config":1371,"ached":1372,"hem":1373,"Ġpath":1374,"ĠRun":1375,"Col":1376,"ĠQ":1377,"Stream":1378,"ĠĠĉĉ":1379,"Connection":1380,"52":1381,"Ġsub":1382,"Ke":1383,"gister":1384,"ĠApp":1385,"Ġabout":1386,"LI":1387,"Ġcontent":1388,"Ġbutton":1389,"aus":1390,"alled":1391,"Ġint":1392,"til":1393,"Ġpage":1394,"ĠActual":1395,"Ġupdate":1396,"FilterChain":1397,"ĠAPI":1398,"abel":1399,"irst":1400,"Ġmake":1401,"web":1402,"ree":1403,"format":1404,"TP":1405,"qserv":1406,"execute":1407,"ge":1408,"par":1409,"();":1410,"les":1411,"handle":1412,"Ġ8":1413,"ĠIf":1414,"eploy":1415,"equ":1416,"Ġ6":1417,"Ġ08":1418,"adata":1419,"Rep":1420,"45":1421,"ateg":1422,"ecution":1423,"lock":1424,"Proxy":1425,"send":1426,"ese":1427,"Ġport":1428,"Ġandroid":1429,"Ġlaunch":1430,"wit":1431,"Ġcould":1432,"Ġsh":1433,"etadata":1434,"ĠAdd":1435,"open":1436,"ĠUI":1437,"ĠSAS":1438,"umn":1439,"ository":1440,"ĠSASL":1441,"Error":1442,"ove":1443,"dmin":1444,"Ġexception":1445,"Interceptor":1446,"ĠSteps":1447,"ased":1448,"ading":1449,"Ġdif":1450,"Ġhand":1451,"Ġcontainer":1452,"Ġrepro":1453,"ems":1454,"43":1455,"TR":1456,"Channel":1457,"File":1458,"file":1459,"OT":1460,"bin":1461,"we":1462,"Dispatch":1463,"ĠCreate":1464,"Ġtrans":1465,"ten":1466,"itial":1467,"ulti":1468,"board":1469,"ng":1470,"server":1471,"Ġsystem":1472,"blem":1473,"Ġcontain":1474,"Ġass":1475,"undle":1476,"lean":1477,"AM":1478,"nable":1479,"Ġinter":1480,"Ġthey":1481,"Ġnam":1482,"Ġobject":1483,"izer":1484,"main":1485,"plet":1486,"89":1487,"****":1488,"roll":1489,"lection":1490,"ailable":1491,"Http":1492,"ish":1493,"Ġable":1494,"hedul":1495,"Ġproperty":1496,"Ġmay":1497,"Ġnpm":1498,"Ġdirectory":1499,"Ġ2014":1500,"EclipseApp":1501,"AT":1502,"Processor":1503,"Ġchange":1504,"arget":1505,"ection":1506,"inox":1507,"eper":1508,"Ġappear":1509,"Ġrecover":1510,"part":1511,"very":1512,"Ġclick":1513,"Ġtext":1514,"Id":1515,"jface":1516,"ount":1517,"Ġtable":1518,"equinox":1519,"ĠDe":1520,"fore":1521,"stall":1522,"Ġallow":1523,"ĠSer":1524,"Ġreturn":1525,"amet":1526,"fs":1527,"Ġlook":1528,"When":1529,"Ġnumber":1530,"SA":1531,"ark":1532,"Ġdevice":1533,"ustom":1534,"ade":1535,"Ġid":1536,"formation":1537,"ead":1538,"net":1539,"ctivity":1540,"cker":1541,"Data":1542,"sh":1543,"Ġent":1544,"Ġ_":1545,"ĠAl":1546,"Ġvi":1547,"thon":1548,"Ġimage":1549,"Table":1550,"ithub":1551,"Serv":1552,"ier":1553,"Ġservice":1554,"Par":1555,"Ġcase":1556,"ress":1557,"ility":1558,"This":1559,"Invocation":1560,"Sc":1561,"ice":1562,"aging":1563,"doFilter":1564,"AU":1565,"ved":1566,"ĠHT":1567,"gistr":1568,"ID":1569,"\":\"":1570,"Ġdepend":1571,"Ġavailable":1572,"ified":1573,"Ġbet":1574,"ĠReplica":1575,"Request":1576,"npm":1577,"Ġcorrect":1578,"noformat":1579,"87":1580,"Ġbec":1581,"Delegating":1582,"cur":1583,"loud":1584,"022":1585,"Ġplugin":1586,"ym":1587,"Ġexample":1588,"Ġ.":1589,"Ġrunning":1590,"tes":1591,"Ġway":1592,"Ġwhere":1593,"40":1594,"SC":1595,"ampl":1596,"Ġapplication":1597,"sole":1598,"cription":1599,"rd":1600,"Ġmodules":1601,"Ġcomponent":1602,"Ġresources":1603,"ince":1604,"Ġfirst":1605,"Ġreproduce":1606,"ell":1607,"Android":1608,"ally":1609,"ide":1610,"econ":1611,"eature":1612,"âĢ":1613,"space":1614,"pression":1615,"dep":1616,"ld":1617,"ApplicationFilterChain":1618,"Ġjust":1619,"Ġmy":1620,"arn":1621,"Ġcreated":1622,"ging":1623,"config":1624,"Ġund":1625,"amples":1626,"It":1627,"support":1628,"Ġem":1629,"ĠXML":1630,"viron":1631,"jar":1632,"andard":1633,"Ġhow":1634,"heduler":1635,"Job":1636,"hell":1637,"velop":1638,"ert":1639,"ĠError":1640,"Ġdown":1641,"Ġcons":1642,"\\\\":1643,"Ġwhile":1644,"Ed":1645,"start":1646,"apter":1647,"Name":1648,"Ġwindow":1649,"And":1650,"ong":1651,"lete":1652,"Ġfails":1653,"Ġsource":1654,"hot":1655,"ĠWhen":1656,"ccessful":1657,"ĠSource":1658,"ner":1659,"current":1660,"Ġpo":1661,"Ġref":1662,"ics":1663,"ET":1664,"mp":1665,"vert":1666,"Ġscri":1667,"lack":1668,"Ġscript":1669,"Command":1670,"Ġattached":1671,"Ġ\"/":1672,"oo":1673,"ized":1674,"ification":1675,"Util":1676,"mis":1677,"Ġinformation":1678,"Ġcomp":1679,"Tr":1680,"ven":1681,"Ġdiffer":1682,"Ġtry":1683,"Ġfix":1684,"ĠTest":1685,"enu":1686,"Aut":1687,"Ġpass":1688,"lsst":1689,"html":1690,"ina":1691,"Se":1692,"arning":1693,"Ġneeds":1694,"NativeMethodAccessorImpl":1695,"vider":1696,"Ġdoesn":1697,"Ġ22":1698,"Ġtw":1699,"77":1700,"github":1701,"Ġimport":1702,"Builder":1703,"ki":1704,"ogle":1705,"vironment":1706,"IT":1707,"ĠIm":1708,"Servlet":1709,"Ad":1710,"Ġtook":1711,"ierarch":1712,"Ġnow":1713,"odle":1714,"69":1715,"Ġman":1716,"Ġthese":1717,"ĠOpen":1718,"Ġunder":1719,"Launcher":1720,"ĠĠĠĠĠĠĠĠĠĠĠĠĠ":1721,"ĠFor":1722,"Lib":1723,"Pool":1724,"Ġproperties":1725,"cs":1726,"word":1727,"rop":1728,"ribution":1729,"npmjs":1730,"Path":1731,"Ġbeen":1732,"hema":1733,"ling":1734,"Ġ03":1735,"Ġwant":1736,"Ġanalysis":1737,"Ġdialog":1738,"Ġvalid":1739,"ĠXD":1740,"62":1741,"job":1742,"icon":1743,"apper":1744,"asic":1745,"uring":1746,"ĠIN":1747,"Ref":1748,"src":1749,"Ġthan":1750,"\",\"":1751,"Ġdifferent":1752,"home":1753,"vide":1754,"ever":1755,"ĠNo":1756,"ponse":1757,":'":1758,"adapt":1759,"RL":1760,"Deploy":1761,"catal":1762,"Ġcolumn":1763,"adaptor":1764,"We":1765,"hout":1766,"rec":1767,"ĠCont":1768,"bamboo":1769,"gi":1770,"Ġchanges":1771,"arter":1772,"000000":1773,"course":1774,"ences":1775,"SS":1776,"dic":1777,"Ġ01":1778,"ĠFile":1779,"Ġbeing":1780,"ĠSee":1781,"impl":1782,"Ġmem":1783,"\">":1784,"Client":1785,"Ġ9":1786,"Ġfalse":1787,"127":1788,"fined":1789,"ures":1790,"Unknown":1791,"RE":1792,"mat":1793,"Ġaccess":1794,"Ġ**":1795,"Configuration":1796,"catalina":1797,"info":1798,"Ġlink":1799,"party":1800,"fc":1801,"opy":1802,"bound":1803,"Ġinstead":1804,"AP":1805,"Ġeach":1806,"uture":1807,"Content":1808,"Ġkey":1809,"Ġinclud":1810,"Des":1811,"Page":1812,"ous":1813,"amel":1814,"Starter":1815,"ready":1816,"duc":1817,"ingle":1818,"Ġfl":1819,"Viewer":1820,"On":1821,"omet":1822,"ucture":1823,"68":1824,"iler":1825,"Ġtrue":1826,"For":1827,"Ġ20":1828,"line":1829,"ĠMethod":1830,"valid":1831,"Ġtwo":1832,"Loader":1833,"Color":1834,"ĠProject":1835,"ARN":1836,"hing":1837,"clude":1838,"Template":1839,"aven":1840,"host":1841,"stream":1842,"vis":1843,"Ġmulti":1844,"Ġconnect":1845,"actor":1846,"Resource":1847,"Ġour":1848,"plugin":1849,"Ġbytes":1850,"GE":1851,"ony":1852,"ĠAut":1853,"Ġbefore":1854,"event":1855,"rdparty":1856,"Al":1857,"ithout":1858,"idth":1859,"project":1860,"42":1861,"launcher":1862,"Ġrest":1863,"ĠDM":1864,"65":1865,"inux":1866,"========":1867,"Ġbecause":1868,"ization":1869,"Document":1870,"Ġoper":1871,"Ġdist":1872,"Ġproblem":1873,"ails":1874,"Update":1875,"Ġwhat":1876,"Ġtho":1877,"Control":1878,"urrently":1879,"Dialog":1880,"ĠCLI":1881,"Framework":1882,"Ġco":1883,"usr":1884,"ersion":1885,"ocs":1886,"Ġthro":1887,"Ġ00":1888,"Web":1889,"etc":1890,"Ġstill":1891,"Ġreceived":1892,"aps":1893,"Ġocc":1894,"url":1895,"Ġ17":1896,"ferences":1897,"Ġfolder":1898,"Ġenable":1899,"Ġeditor":1900,"common":1901,"oogle":1902,"deploy":1903,"With":1904,"Part":1905,"aa":1906,"Ġstr":1907,"ccessfully":1908,"81":1909,"Ġread":1910,"Ġgroup":1911,"Ġ]":1912,"Ġrel":1913,"ays":1914,"ING":1915,"MES":1916,"Ġinstalled":1917,"Ġaux":1918,"ential":1919,"empting":1920,"ency":1921,"Bundle":1922,"Not":1923,"path":1924,"prove":1925,"Project":1926,"ty":1927,"sert":1928,"EclipseStarter":1929,"sible":1930,"ait":1931,"iOS":1932,"Ġstudio":1933,"Ġresults":1934,"Ġmenu":1935,"Ġstate":1936,"Ġsetting":1937,"QL":1938,"XP":1939,"Str":1940,"');":1941,"(\"":1942,"Ġparamet":1943,"Loc":1944,"Wr":1945,"Ġmis":1946,"97":1947,"debug":1948,"ĠUp":1949,"Sim":1950,"tmp":1951,"Ġexisting":1952,"Library":1953,"ared":1954,"title":1955,"Ġwithout":1956,"Ġdebug":1957,"ically":1958,"Hel":1959,"xf":1960,"ĠK":1961,"update":1962,"aces":1963,"Ġalready":1964,"ible":1965,"ases":1966,"Ġscreen":1967,"ategy":1968,"EclipseAppLauncher":1969,"dispatch":1970,"inter":1971,"admin":1972,"Ġhere":1973,"ira":1974,"sendEvent":1975,"ocket":1976,"Ġpackage":1977,"Adapter":1978,"Object":1979,"UN":1980,"ĠOn":1981,"locator":1982,")[":1983,"Ġdb":1984,"ĠCom":1985,"Ġcontext":1986,"Ġadded":1987,"Ġcurrently":1988,"Ġagain":1989,"To":1990,"ti":1991,"Node":1992,"SST":1993,"Ġthrough":1994,"inc":1995,"Ġfailed":1996,"Ġcomplet":1997,"index":1998,"Ġtop":1999,"lose":2000,"Ġplatform":2001,"ThreadPool":2002,":\\":2003,"Ġac":2004,"Ġnames":2005,"++":2006,"Ġwell":2007,"Ġauthentication":2008,"Ġquery":2009,"Ġbackground":2010,"utton":2011,"Ġdon":2012,"opens":2013,"Type":2014,"Ġk":2015,"Ġorder":2016,"Ġwrite":2017,"filter":2018,"text":2019,"round":2020,"service":2021,"vices":2022,"Ġregistr":2023,"place":2024,"Ġoutput":2025,"ĠĠĠĠĠĠĠĠĠĠĠĠĠĠĠĠĠĠĠĠĠĠĠĠĠĠĠĠĠĠĠĠĠĠĠĠĠĠĠĠĠĠĠĠĠĠĠĠĠĠĠĠĠĠĠĠĠĠĠĠĠĠĠĠ":2026,"DelegatingMethodAccessorImpl":2027,"83":2028,"oop":2029,"essages":2030,"Ġbeh":2031,"veloper":2032,"Ġboth":2033,"Ġmod":2034,"/.":2035,"Ġtitle":2036,"Ġinclude":2037,"An":2038,"Ġicon":2039,"Ġmain":2040,"Ġsuch":2041,"servlet":2042,"wh":2043,"Ġusers":2044,"En":2045,"GA":2046,"Ġfound":2047,"https":2048,"www":2049,"sun":2050,"Ġclient":2051,"Ġinv":2052,"Ġvia":2053,"ĠINFO":2054,"Ġcr":2055,"Ġdatabase":2056,"Ġoff":2057,"\".":2058,"class":2059,"adoop":2060,"api":2061,"roduce":2062,"ĠSc":2063,"Ġright":2064,"Ġits":2065,"Ġbased":2066,"RI":2067,"dirt":2068,"arent":2069,"call":2070,"DefaultAction":2071,"side":2072,"Pre":2073,"osgi":2074,"Windows":2075,"Ġoccur":2076,"mob":2077,"Ġx":2078,"Ġtool":2079,"avi":2080,"ply":2081,"Ġ'/":2082,"tests":2083,"access":2084,"Ġweb":2085,"Ġupdated":2086,"Ġremove":2087,"ilesdk":2088,"module":2089,"Ġthrow":2090,"fl":2091,"top":2092,"Ġgr":2093,"Ġendpoint":2094,"econd":2095,"ThreadPoolExecutor":2096,"Activity":2097,"Ġadmin":2098,"Ġspace":2099,"Ġdocumentation":2100,"mobilesdk":2101,"Group":2102,"Support":2103,"ecover":2104,"umer":2105,"Ġlat":2106,"concurrent":2107,"sub":2108,"Ġindex":2109,"Worker":2110,"Ġworks":2111,"SAGE":2112,"ĠBuild":2113,":/":2114,"Ġ&":2115,"Studio":2116,"Button":2117,"oot":2118,"Ġtesting":2119,"Ġ</":2120,"EventListener":2121,"Ġauthenticate":2122,"Ġfilter":2123,"phone":2124,"ĠReceived":2125,"include":2126,"Ġsection":2127,"ĠJava":2128,"ayout":2129,"string":2130,"âĶ":2131,"Ġhierarch":2132,"etch":2133,"Ġissues":2134,"MESSAGE":2135,"Log":2136,"ĠWindows":2137,"phony":2138,"Ġpoint":2139,"edi":2140,"Ġstring":2141,"dbc":2142,"var":2143,"Ġ...":2144,"attern":2145,"ĠĠĉĉĉ":2146,"ĠAn":2147,"Ġdetect":2148,"ymphony":2149,"Item":2150,"opensymphony":2151,"DefaultActionInvocation":2152,"200":2153,"Ġwarning":2154,"ĠAtt":2155,"Ar":2156,"lement":2157,"Ġinstance":2158,"ashboard":2159,"ient":2160,"Ġpr":2161,"ĠMobile":2162,"enshot":2163,"witter":2164,"98":2165,"Ġgiv":2166,"Ġsince":2167,"Ġ13":2168,"igger":2169,"ĠPersisting":2170,"mission":2171,"model":2172,"--------------------------------":2173,"Java":2174,"how":2175,"Ġload":2176,"String":2177,"ĠPersisted":2178,"Ġmultiple":2179,"master":2180,"ware":2181,"rowser":2182,"ĠSupport":2183,"TRY":2184,"col":2185,"mod":2186,"Ġimplementation":2187,"ĠY":2188,"ubl":2189,"ENTRY":2190,"box":2191,"ween":2192,"oid":2193,"Ġpack":2194,"'.":2195,"Set":2196,"cle":2197,"son":2198,"Ġz":2199,"ors":2200,"Ġfind":2201,"ĠThere":2202,"AbstractMessage":2203,"Base":2204,"Ġsend":2205,"0114":2206,"hone":2207,"editor":2208,"pus":2209,"Ġcustom":2210,"Ġindic":2211,"Tab":2212,"down":2213,"wr":2214,"Ġhapp":2215,"ren":2216,"ROP":2217,"ĠHTTP":2218,"Info":2219,"ĠNode":2220,"Gener":2221,"JS":2222,"Ġsingle":2223,"Ġstor":2224,"ags":2225,"Ġ21":2226,"Image":2227,"Editor":2228,"Ġevents":2229,"aut":2230,"bd":2231,"Ġ2012":2232,"Ġetc":2233,"grid":2234,"true":2235,"bit":2236,"click":2237,"Ġduring":2238,"Ġmeas":2239,"Ġrequired":2240,"Ġbetween":2241,"gument":2242,"init":2243,"Ġmatch":2244,"Ġ27":2245,"ret":2246,"Ġconst":2247,"raw":2248,"ality":2249,"System":2250,"png":2251,"win":2252,"ordin":2253,"Keeper":2254,"100":2255,"new":2256,"Ġsure":2257,"Ġclean":2258,"ise":2259,"Ġmust":2260,"emove":2261,"9999":2262,"Ġperform":2263,"Dec":2264,"edis":2265,"Ġpop":2266,"////":2267,"Runner":2268,"trans":2269,"cm":2270,"60":2271,"clover":2272,"Ġfeature":2273,"unit":2274,"Ġdone":2275,"ĠCh":2276,"Ġxd":2277,"Ġtyp":2278,"Ġ2015":2279,"Ġconfigure":2280,"Text":2281,"base":2282,"gram":2283,"ĠSlave":2284,"Ġstack":2285,"AUXP":2286,"AUXPROP":2287,"EST":2288,"Reference":2289,"Runtime":2290,"Ġvari":2291,"Ġdisc":2292,"Ġupdates":2293,"Value":2294,"Utils":2295,"End":2296,"aves":2297,"ĠĠĠĠĠĠĠĠĠĠ":2298,"Execution":2299,"Ġerrors":2300,"Ġpossible":2301,"Ġart":2302,"Ġappears":2303,"ced":2304,"ysql":2305,"Platform":2306,"HT":2307,"camel":2308,"Ġsecond":2309,"Ġconvert":2310,"ipal":2311,"Ġhel":2312,"beans":2313,"LO":2314,"cxf":2315,"Ġinitial":2316,"Ġmetadata":2317,"ĠTo":2318,"Ġvalues":2319,"Send":2320,"Ġwizard":2321,"ĠClick":2322,"gress":2323,"ĠHow":2324,"jira":2325,"yle":2326,"alm":2327,"osx":2328,"ĠReproduce":2329,"other":2330,"uf":2331,"Ġyour":2332,"ovy":2333,"bed":2334,"Ġbehavi":2335,"Ġcl":2336,"Ġformat":2337,"Ġsched":2338,"order":2339,"vm":2340,"Index":2341,"ĠGET":2342,"Ġrow":2343,"Ġsomet":2344,"ĠSe":2345,"river":2346,"container":2347,"Ġlocation":2348,"incipal":2349,"ython":2350,"essaging":2351,"0224":2352,"Socket":2353,"dat":2354,"Ġbug":2355,"json":2356,"perties":2357,"Ġticket":2358,"Ġmissing":2359,"DM":2360,"80":2361,"hor":2362,"Ġprovid":2363,"TI":2364,"Ġoptions":2365,"Ġspecific":2366,"check":2367,"xwork":2368,"Ġtheir":2369,"ĠNot":2370,"dis":2371,"ĠOS":2372,"Handle":2373,"ĠAuthentic":2374,"type":2375,"Ġrelease":2376,"Ġlocal":2377,"olut":2378,"Ġeven":2379,"valu":2380,"Ġauthenticator":2381,"Ġselected":2382,"Ġprovide":2383,"addEventListener":2384,"flow":2385,"Ġab":2386,"Ġnon":2387,"Ġob":2388,"Ġuses":2389,"Ġtarget":2390,"Ġinfo":2391,"....":2392,"96":2393,"default":2394,"Ġdevelop":2395,"507":2396,"ĠLo":2397,"2014":2398,"ribute":2399,"Loop":2400,"Sub":2401,"ines":2402,"Dispatcher":2403,"ili":2404,"ni":2405,"Ġter":2406,"amp":2407,"apping":2408,"Ġactual":2409,"tool":2410,"Ġenvironment":2411,"Ġtim":2412,"etty":2413,"ĠAs":2414,"Ġ30":2415,"createWindow":2416,"Ġrelated":2417,"92":2418,"display":2419,"files":2420,"install":2421,"reak":2422,"location":2423,"ecess":2424,"Ġstep":2425,"Child":2426,"Ġclasses":2427,"ublish":2428,"etr":2429,"Ġcorrectly":2430,"Ġauthenticatee":2431,"ycle":2432,"reg":2433,"Definition":2434,"Ġtiapp":2435,"tension":2436,"uery":2437,"Ġ../../":2438,"Ġconsole":2439,"emp":2440,"Ġedit":2441,"aused":2442,"Trans":2443,"AL":2444,"SH":2445,"lf":2446,"Key":2447,"Source":2448,"ĠĠĠĠĊ":2449,"stout":2450,"Ġregister":2451,"Ġevery":2452,"ACS":2453,"iki":2454,"Ġstd":2455,"Ġvis":2456,"ĠJob":2457,")@":2458,"Ġnull":2459,"State":2460,"Ġrepository":2461,"VER":2462,"cd":2463,"olator":2464,"ocus":2465,"BeanFactory":2466,"ither":2467,"ĠService":2468,"Launch":2469,"uch":2470,"ĠPlease":2471,"libprocess":2472,"redential":2473,"Parser":2474,"110":2475,"alloy":2476,"Ġblock":2477,"Ġchar":2478,"343":2479,"ĠQserv":2480,"Ġmin":2481,"ular":2482,"Ġ14":2483,"ement":2484,"Ġcannot":2485,"ually":2486,"co":2487,"que":2488,"Currently":2489,"If":2490,"pace":2491,"system":2492,"Ġroot":2493,"jc":2494,"inal":2495,"Ġte":2496,"Ġcourse":2497,"grade":2498,"Runnable":2499,"Ġgenerated":2500,"Repository":2501,"Ġacc":2502,"connect":2503,"window":2504,"era":2505,"ĠNote":2506,"Ġdisk":2507,"usergrid":2508,"Ġfields":2509,"cgroup":2510,"laves":2511,"ets":2512,"ĠĠĠĠĠĠĠĠĠĠĠĠĠĠĠĠĠ":2513,"annot":2514,"afe":2515,"Simple":2516,"($":2517,"false":2518,"Ġmesos":2519,"key":2520,"ĠURL":2521,"Ġscreenshot":2522,"arned":2523,"Out":2524,"ecur":2525,"Provider":2526,"resent":2527,"93":2528,"Sh":2529,"ray":2530,"Ġsize":2531,"Ġcrash":2532,"DB":2533,"mpt":2534,"aving":2535,"ĠData":2536,"Ġdesign":2537,"Label":2538,"MD":2539,"python":2540,"Ġdisplayed":2541,"Ġemulator":2542,"CS":2543,"ecurity":2544,"Future":2545,"Open":2546,"Ġprot":2547,"195":2548,"lobal":2549,"Helper":2550,"78":2551,"ĠSu":2552,"Ġ12":2553,"Ġdefined":2554,"oder":2555,"ĠUn":2556,"localhost":2557,"73":2558,"SQL":2559,"ont":2560,"ptana":2561,"Ġproper":2562,"olve":2563,"Standard":2564,"Endpoint":2565,"Do":2566,"client":2567,"sdk":2568,"etwork":2569,"Ġ26":2570,"Ġitems":2571,"prop":2572,"ĠER":2573,"Ġseems":2574,"resh":2575,"arg":2576,"async":2577,"ynch":2578,"Ġitem":2579,"struct":2580,"Ġruntime":2581,"ĠVersion":2582,"85":2583,"Ġlabel":2584,"empty":2585,"********":2586,"epar":2587,"Input":2588,"Ġautom":2589,"Local":2590,"ordinator":2591,"Get":2592,"Po":2593,"ooke":2594,"Ġexp":2595,"Ġmethods":2596,"ecessary":2597,"atus":2598,"eta":2599,"Ġlast":2600,"Ġprojects":2601,"perty":2602,"94":2603,"Ġ->":2604,"Ġsearch":2605,"ather":2606,"Kit":2607,"bar":2608,"ings":2609,"aly":2610,"Ġmessages":2611,"Ġanother":2612,"Ġdelet":2613,"elf":2614,"Ġthose":2615,"SE":2616,"map":2617,"Ġflow":2618,"stack":2619,"anges":2620,"this":2621,"ookeeper":2622,"70":2623,"90":2624,"ca":2625,"ions":2626,"Ġwere":2627,"ilar":2628,"igate":2629,"ĠLSST":2630,"Ġhierarchical":2631,"ynchron":2632,"iphone":2633,"me":2634,"Ġmobile":2635,"0206":2636,"CT":2637,"factory":2638,"idd":2639,"context":2640,"witch":2641,"95":2642,"Ġmode":2643,"Int":2644,"cons":2645,"ĠNew":2646,"Ġaddition":2647,"projects":2648,"Que":2649,"Row":2650,"docs":2651,"mobile":2652,"plor":2653,"Steps":2654,"Ġscheduler":2655,"google":2656,"the":2657,"ffect":2658,"Ġcreating":2659,"Ġdeployment":2660,">(":2661,"iter":2662,"Ġregistrar":2663,"Ġgiven":2664,"ĠHowever":2665,"erry":2666,"ĠModule":2667,"Ġ***":2668,"Ġstarted":2669,"OM":2670,"Script":2671,"sed":2672,"source":2673,"Ġthread":2674,"ably":2675,"75":2676,"AI":2677,"TH":2678,"erse":2679,"Ġtitanium":2680,"ense":2681,"Ġwithin":2682,"assword":2683,"ugg":2684,"Implement":2685,"Ġsomething":2686,"Call":2687,"fine":2688,"ities":2689,"Ġreg":2690,"Ġprompt":2691,"Ġdelete":2692,"application":2693,"190":2694,"Ġinterface":2695,"Ġeas":2696,"Debug":2697,"Ġworking":2698,"ynam":2699,"Strategy":2700,"63":2701,"DL":2702,"New":2703,"omain":2704,"Ġdefinition":2705,"ifact":2706,"Ġexecutor":2707,"ires":2708,"pi":2709,"ways":2710,"Ġad":2711,"its":2712,"aller":2713,"ĠST":2714,"moodle":2715,"Ġparameter":2716,"Ġdetected":2717,")\\":2718,"Ġcopy":2719,"dev":2720,"uplic":2721,"print":2722,"Ġshows":2723,".<":2724,"basic":2725,"Ġqserv":2726,"Ġbreak":2727,"ĠPl":2728,"Store":2729,"rowse":2730,"Resources":2731,"ĠConfig":2732,"Ġauxprop":2733,"ktop":2734,"ily":2735,"ĠSpring":2736,"plorer":2737,"ume":2738,"Ġrout":2739,"Field":2740,"self":2741,"ĠCheck":2742,"encies":2743,"Ġsepar":2744,"Ġself":2745,"nder":2746,"Ġcontrol":2747,"Plugin":2748,"Ġenabled":2749,"ersey":2750,"unk":2751,"NS":2752,"ĠWh":2753,"ired":2754,"Ġresource":2755,"services":2756,"Valve":2757,"RAM":2758,"store":2759,"Ġresponse":2760,"Ġ47":2761,"386":2762,"BuildManager":2763,"Ġshown":2764,"Berry":2765,"gor":2766,"sql":2767,"Ġpi":2768,"ĠĠĠĠĠĠĠĠĠĠĠ":2769,"Ġexpected":2770,"Contribution":2771,"ClassLoader":2772,"Ġcontains":2773,"lackBerry":2774,"Phone":2775,"ĠDo":2776,"oodle":2777,"ĠCre":2778,"ĠStart":2779,"ĠUser":2780,"gorith":2781,"Ġinput":2782,"1024":2783,"Ġlearned":2784,"akes":2785,"eatures":2786,"Async":2787,"Ġremoved":2788,"ĠSuccessfully":2789,"Cache":2790,"OR":2791,"interceptor":2792,"Ġsample":2793,"amera":2794,"uble":2795,"Server":2796,"Ġfunctionality":2797,"uggest":2798,"],":2799,"pre":2800,"Ġcover":2801,"Ġbro":2802,"uide":2803,"arker":2804,"210":2805,"root":2806,"Ġinside":2807,"grad":2808,"174":2809,"IR":2810,"blob":2811,"function":2812,"std":2813,"channel":2814,"ĠWeb":2815,"ĠERROR":2816,"eg":2817,"slave":2818,"});":2819,"ason":2820,"vious":2821,"Ġimprove":2822,"DF":2823,"jdbc":2824,"scri":2825,"Ġcaus":2826,"ĠClover":2827,"122":2828,"pose":2829,"Ġthink":2830,"anagement":2831,"Ġsupported":2832,"Result":2833,"Ġtasks":2834,"olution":2835,"ctive":2836,"Ġms":2837,"Ġconf":2838,"cp":2839,"unter":2840,"platform":2841,"events":2842,"junit":2843,"oft":2844,"aph":2845,"ayload":2846,"Registry":2847,"Ġhelp":2848,"Per":2849,"jersey":2850,"ynt":2851,"lig":2852,"Ġ24":2853,"Ġlong":2854,"4000000":2855,"Slave":2856,"Zoo":2857,"Ġempty":2858,"Ġinc":2859,"igr":2860,"rie":2861,"Ġalways":2862,"Ġneeded":2863,"resources":2864,"Ġhandle":2865,"edia":2866,"400000004":2867,"Map":2868,"PE":2869,"Ġbehavior":2870,"opt":2871,"uid":2872,"ins":2873,"ingMessage":2874,"Ġleft":2875,"AN":2876,"Ġel":2877,"Ġreference":2878,"âĶĢ":2879,"ZooKeeper":2880,"Remove":2881,"tom":2882,"Ġkn":2883,"Ġgenerate":2884,"ĠPre":2885,"ipe":2886,"MO":2887,"Rule":2888,"filer":2889,"Ġcases":2890,"see":2891,"Ġlsst":2892,"handler":2893,"Ġsimple":2894,"Children":2895,"'d":2896,"iber":2897,"reen":2898,"Ġ==":2899,"lective":2900,"Ġlatest":2901,"IDE":2902,"Ġver":2903,"Ġcpus":2904,"select":2905,"ider":2906,"Internal":2907,"ĠLog":2908,"ContributionItem":2909,"aries":2910,"Ġbelow":2911,"ĠJSON":2912,"Ġassign":2913,"script":2914,"anis":2915,"Inst":2916,"command":2917,"Reply":2918,"Oper":2919,"SDK":2920,"cat":2921,"Ġ`":2922,"onitor":2923,"Ġbr":2924,"Ġsetup":2925,"background":2926,"Ġknow":2927,"WARN":2928,"windows":2929,"ĠAlloy":2930,"list":2931,"Ġvery":2932,"Ġpost":2933,"Ġmight":2934,"Change":2935,"Ġprocessing":2936,"Unit":2937,"Ġcomponents":2938,"41":2939,"git":2940,"appc":2941,"inding":2942,"redis":2943,"rag":2944,"rest":2945,"ĠFailed":2946,"ĠImplement":2947,"Reflective":2948,"ĠAttempting":2949,"ynamic":2950,"yntax":2951,"Ġbase":2952,"Ġprodu":2953,"uper":2954,"ĠES":2955,"Ġdeployed":2956,"orter":2957,"Ġwidth":2958,"LED":2959,"ken":2960,"Ġclo":2961,"Ġdoc":2962,"chanis":2963,"Ġ304":2964,"Ġeither":2965,"Produc":2966,"loader":2967,"Queue":2968,"sys":2969,"repos":2970,"Ġhost":2971,"idden":2972,",\"":2973,"Wizard":2974,"fb":2975,"ecycle":2976,"umm":2977,"ntity":2978,"Realm":2979,"Ġheight":2980,"72":2981,"Mod":2982,"fd":2983,"Ġcho":2984,"Ġcore":2985,"ĠSet":2986,"ĠRecover":2987,"ators":2988,"Ġmechanis":2989,"Ġtermin":2990,"Bar":2991,"Ġam":2992,"igh":2993,"EventTable":2994,"ĠProcess":2995,"Ġwrit":2996,"Ġdependency":2997,"etrics":2998,"Or":2999,"Ġsink":3000,"Ġdid":3001,"168":3002,"Ġretur":3003,"Ġrequires":3004,"Ġsimulator":3005,"jetty":3006,"tual":3007,"Ġelement":3008,"ĠHSC":3009,"processor":3010,"Ġintegration":3011,"Deployer":3012,"NAP":3013,"Ġtri":3014,"Ġcor":3015,"Ġcomplete":3016,":*":3017,"az":3018,"kit":3019,"Ġfocus":3020,"ĠMesos":3021,"ublic":3022,"Ġports":3023,"AndRun":3024,"SHOT":3025,"EE":3026,"Ġsession":3027,"avas":3028,"used":3029,"ĠCaused":3030,"Ġadding":3031,"Ġunit":3032,"Ġservices":3033,"Ġabove":3034,"NAPSHOT":3035,"82":3036,"Files":3037,"Fix":3038,"launch":3039,"Ġcgroup":3040,"Ġfre":3041,"Ġsuccess":3042,"HP":3043,"Messaging":3044,"ĠException":3045,"atically":3046,"Ġspring":3047,"Ġcalled":3048,"etry":3049,"Ġold":3050,"principal":3051,"comp":3052,"createAndRun":3053,"ACK":3054,"Ġdownload":3055,"Ġtypes":3056,"redentials":3057,"avascript":3058,"browse":3059,"fire":3060,"sd":3061,"ves":3062,"char":3063,"0126":3064,"Ġextension":3065,"ĠInstall":3066,"Ġargument":3067,"EclipseAppHandle":3068,"Select":3069,"Ġrestart":3070,"Ġaccept":3071,"91":3072,"PS":3073,"dy":3074,"Ġ__":3075,"orm":3076,"arge":3077,"Ġdescription":3078,"ĠHTML":3079,"Ġslaves":3080,"Ġnecessary":3081,"cho":3082,"Ġ\"--":3083,"ape":3084,"Wrapper":3085,"Ġseparate":3086,"/>":3087,"Found":3088,"direct":3089,"message":3090,"ving":3091,"Ġsave":3092,"ceed":3093,"Ġexport":3094,"uster":3095,"}}.":3096,"PlatformUI":3097,"OO":3098,"abbit":3099,"Ġexecut":3100,"Ġ=>":3101,"192":3102,"Ġversions":3103,"Decoder":3104,"Ġdiscus":3105,"createAndRunWorkbench":3106,"ĠTr":3107,"Ġstore":3108,"Ġsteps":3109,"ĠMule":3110,"ope":3111,"Ġsimilar":3112,"ĠAlso":3113,"Redis":3114,"bably":3115,"des":3116,"Ġfine":3117,"Ġbuilding":3118,"servable":3119,"ApplicationContext":3120,"FutureTask":3121,"525":3122,"Ġ04":3123,"TiAPI":3124,"Ġjobs":3125,"'m":3126,"nate":3127,"wiki":3128,"Ġfull":3129,"alib":3130,"ables":3131,"gression":3132,"2015":3133,"UT":3134,"ĠDes":3135,"Start":3136,"ĠĠĠĠĠĠĠĠĠĠĠĠĠĠĠĠĠĠĠĠĠ":3137,"curator":3138,"'ve":3139,"ION":3140,"User":3141,"Ġbrowser":3142,"Ġmap":3143,"ĠSim":3144,"ĠWork":3145,"ĠWARN":3146,"Ġaddress":3147,"Ġchannel":3148,"StreamDecoder":3149,"Ġbetter":3150,"Controller":3151,"WT":3152,"Ġtemplate":3153,"Ġside":3154,"allocator":3155,"licit":3156,"Ġattempting":3157,"Ġcharact":3158,"Ġxml":3159,"Ġ'*":3160,"ĠMaster":3161,"Safe":3162,"manager":3163,"pec":3164,"intercept":3165,"Ġ276":3166,"ĠBut":3167,"Ġtrigger":3168,"Ġproperly":3169,"500":3170,"SNAPSHOT":3171,"my":3172,"ps":3173,"Ġschema":3174,"Ġimages":3175,"Ġchanged":3176,"ibernate":3177,"Ġsdk":3178,"Ġrem":3179,"apro":3180,"quote":3181,"AILED":3182,"Query":3183,"secur":3184,"Ġnotice":3185,"endpoint":3186,"Ġplace":3187,"Ġfailure":3188,"Ġkeys":3189,"ĠbackgroundColor":3190,"Check":3191,"Time":3192,"mules":3193,"Ġstandard":3194,"ĠEn":3195,"Ġlogs":3196,"security":3197,"ED":3198,"FI":3199,"Ġ11":3200,"ody":3201,"thing":3202,"dfs":3203,"greg":3204,"jo":3205,"},":3206,"Âł":3207,"Ġleast":3208,"Ġmeasure":3209,"61":3210,"task":3211,"ished":3212,"ĠID":3213,"ĠCo":3214,"ĠPackage":3215,"apple":3216,"oco":3217,"Ġspecify":3218,"Ġmany":3219,"Ġsettings":3220,"\");":3221,"Is":3222,"Of":3223,"Spring":3224,"ched":3225,"ward":3226,"ane":3227,"Ġpresent":3228,"Ġdrop":3229,"emarker":3230,"Ġ2013":3231,"568":3232,"rong":3233,"ibility":3234,"Ġcalls":3235,"untu":3236,"Ġspecified":3237,"parse":3238,"Ġtrying":3239,"Deployment":3240,"flu":3241,"ĠYou":3242,"Metadata":3243,"less":3244,"Ġ58":3245,"report":3246,"Ġbatch":3247,"Ġ150":3248,"ĠAptana":3249,"angu":3250,"Ġfollow":3251,"Tree":3252,"div":3253,"Ġ)":3254,"Ġtake":3255,"ank":3256,"ĠTI":3257,"ĠType":3258,"ĠPer":3259,"=/":3260,"URL":3261,"cf":3262,"ios":3263,"eries":3264,"anch":3265,"Ġtoo":3266,"Ġhard":3267,"istent":3268,"blems":3269,"ReflectiveMethod":3270,"US":3271,"ross":3272,"Ġnative":3273,"Ġ05":3274,"ĠUpd":3275,"ĠAuthentication":3276,"Co":3277,"Core":3278,"developer":3279,"Expression":3280,"0917":3281,"Ġ2010":3282,"Ġpassword":3283,"uil":3284,"Ġcert":3285,"Ġmost":3286,"Ġmodel":3287,"book":3288,"0909":3289,"Report":3290,"Ġdependencies":3291,"ĠESB":3292,"Make":3293,"Ġnext":3294,"stand":3295,"Ġrele":3296,"umns":3297,"Ġpropos":3298,"172":3299,"AUTH":3300,"Ġconnector":3301,"ĠSelect":3302,"fluence":3303,"ba":3304,"defined":3305,"image":3306,"Ġalert":3307,"alendar":3308,"HTTP":3309,"FY":3310,"dist":3311,"ra":3312,"tend":3313,"ĠView":3314,"Ġbo":3315,"Ġdue":3316,"ĠInt":3317,"ĠREST":3318,"accept":3319,"properties":3320,"32000":3321,"Ġque":3322,"31000":3323,"emplates":3324,"Desktop":3325,"cor":3326,"cache":3327,"Ġ200":3328,"Ġexecution":3329,"0828":3330,"datapro":3331,"dylib":3332,"dataprofiler":3333,"\"/>":3334,"ged":3335,"zookeeper":3336,"rix":3337,"Ġ315":3338,"135":3339,"ĠLaunch":3340,"oken":3341,"Ġfunctions":3342,"Ġcolor":3343,"Ġsuccessfully":3344,"write":3345,"Blob":3346,"Null":3347,"hy":3348,"Ġ\\":3349,"Ġbox":3350,"Ġinvalid":3351,"pond":3352,"Ġdisable":3353,"Ġlibrary":3354,"================":3355,"uplicate":3356,"wn":3357,"Ġregistry":3358,"ĠAr":3359,"1028":3360,"149":3361,"value":3362,"âĢĤ":3363,"ingMessageHandler":3364,"0507":3365,"679":3366,"Ġ57":3367,"level":3368,"Ġpattern":3369,"cel":3370,"Ġexternal":3371,"ĠDeploy":3372,"Proc":3373,"0929":3374,"ĠUsing":3375,"Ġincluded":3376,"Ġadditional":3377,"Ġcauses":3378,"repository":3379,"SL":3380,"XML":3381,"0124":3382,"00000000":3383,"ĠServer":3384,"Documents":3385,"rawable":3386,"\")":3387,"lements":3388,"Ġreason":3389,"Ġprobably":3390,"odes":3391,"ifest":3392,"Ġ07":3393,"Ġexists":3394,"Ġability":3395,"ocoa":3396,"uilt":3397,"Entity":3398,"nio":3399,"show":3400,"Ġregression":3401,"ĠDeb":3402,"ught":3403,"ĠEd":3404,"0626":3405,"272":3406,"content":3407,"Ġflag":3408,"valuate":3409,"Ġurl":3410,"Ġclose":3411,"Ġrefer":3412,"0714":3413,"aking":3414,"ChannelAdapter":3415,"bc":3416,"Ġcount":3417,"Ġonce":3418,"Contents":3419,"Pointer":3420,"ReflectiveMethodInvocation":3421,"UD":3422,"method":3423,"ts":3424,"Ġshell":3425,"pping":3426,"0123":3427,"AbstractReply":3428,"Ġauthenticated":3429,"Ġplugins":3430,"CAT":3431,"TY":3432,"XD":3433,"pped":3434,"ĠTalend":3435,"ĠSo":3436,"ability":3437,"istics":3438,"uple":3439,"Ġgit":3440,"thread":3441,"ĠList":3442,"ersistence":3443,"ACE":3444,"Ġactually":3445,"Ġautomatically":3446,"edit":3447,"Ġmove":3448,"Ġscroll":3449,"Ġdetails":3450,"Ġpartic":3451,"00000001":3452,"mulesoft":3453,".,":3454,"Ġest":3455,"Ġtag":3456,"Ġbar":3457,"ĠAP":3458,"443":3459,"Ġcreation":3460,"Ġprevious":3461,"Ġscripts":3462,"Ġmemory":3463,"Ġprovided":3464,"iliary":3465,"ProducingMessageHandler":3466,"HSC":3467,"fr":3468,"Ġwho":3469,"strument":3470,"(*):[":3471,"TableView":3472,"Ġdistribution":3473,"PointerException":3474,"AbstractReplyProducingMessageHandler":3475,"150":3476,"hadoop":3477,"Ġcache":3478,"estigate":3479,"fff":3480,"STACK":3481,"asting":3482,"Ġauxiliary":3483,"onger":3484,"enter":3485,"Ġhigh":3486,"101":3487,"Line":3488,"No":3489,"Recon":3490,"ef":3491,"table":3492,"Ġsign":3493,"Ġmysql":3494,"ups":3495,"oking":3496,"2879":3497,"BeanDefinition":3498,"Ġident":3499,"plugins":3500,"';":3501,"??":3502,"register":3503,"Ġswitch":3504,"ESB":3505,"ategory":3506,"Ġobjects":3507,"InputStream":3508,"ĠDebug":3509,"ZID":3510,"bl":3511,"~~":3512,"Ġnetwork":3513,"Ġ139":3514,"0122":3515,"pres":3516,"ptions":3517,"hedule":3518,"Ġgood":3519,"handleMessage":3520,"uctured":3521,"visit":3522,"Ġhappen":3523,"Ġvariable":3524,"Ġ../../../../":3525,"Ġreturns":3526,"AUTHZID":3527,"AD":3528,"Ġsm":3529,"Ġpri":3530,"exception":3531,"Ġlonger":3532,"ĠFAILED":3533,"Reader":3534,"socket":3535,"pective":3536,"Ġretrie":3537,"posite":3538,"schema":3539,"louds":3540,"ĠContent":3541,"gradle":3542,"Ġ79":3543,"lif":3544,"Ġdat":3545,"Stack":3546,"Program":3547,"Ġappro":3548,"138":3549,"Ġ/>":3550,"1684":3551,"Ġlogging":3552,"Component":3553,"Mule":3554,"find":3555,"her":3556,"mine":3557,"Ġfeatures":3558,"Ġwindows":3559,"Ġwait":3560,"utdown":3561,"Ġhaving":3562,"234":3563,"Ġbuilds":3564,"Ġinstallation":3565,"16842879":3566,"]:":3567,"target":3568,"lear":3569,"roovy":3570,"Ġfin":3571,"Ġdate":3572,"ush":3573,"ĠString":3574,"Ġplan":3575,"ĠUpdate":3576,"Ġcluster":3577,"Version":3578,"Ġreview":3579,"ĠĠĠĠĠĠĠĠĠĠĠĠĠĠ":3580,"expression":3581,"Ġlarge":3582,"connection":3583,"Ġsever":3584,"ĠObject":3585,"ĠResults":3586,"alibr":3587,"Reconc":3588,"From":3589,"PM":3590,"Session":3591,"by":3592,"fed":3593,"hibernate":3594,"esb":3595,"Ġsyntax":3596,"Ġpublic":3597,"Ġmule":3598,"ĠAll":3599,"Ġexpression":3600,"1029":3601,"179":3602,"tics":3603,"Ġ},":3604,"Ġqueries":3605,"Ġheader":3606,"vision":3607,"Ġperformance":3608,"Recover":3609,"\\\"":3610,"orage":3611,"Ġ100":3612,"assign":3613,"ending":3614,"0610":3615,"Ġuntil":3616,"Ġlimit":3617,"Ġnamed":3618,"Ġoperation":3619,"ientation":3620,"anguage":3621,"ZOO":3622,"ose":3623,"eng":3624,"Ġmach":3625,"ately":3626,"Ġcommands":3627,"Valid":3628,"Ġhappens":3629,"306":3630,"Bus":3631,"Ob":3632,"See":3633,"xx":3634,"ĠâĢ":3635,"0218":3636,"jobs":3637,"Model":3638,"aop":3639,"cod":3640,"Ġ50":3641,"ĠAfter":3642,"ĠDur":3643,"1030":3644,"ĠFail":3645,"ogn":3646,"Comp":3647,"2012":3648,"BuilderImpl":3649,"Tool":3650,"width":3651,"ĠMy":3652,"Edit":3653,"Ġparameters":3654,"////////":3655,"jclouds":3656,"ummary":3657,"Rec":3658,"Ġsuggest":3659,"sec":3660,"Ġorig":3661,"Ġupload":3662,"------------":3663,"Ġcolumns":3664,"ART":3665,"atalog":3666,"Ġtransform":3667,"Ġincludes":3668,"ĠJavaScript":3669,"Ġbranch":3670,"')":3671,"dq":3672,"linux":3673,"Ġbin":3674,"Ġput":3675,"Ġreplace":3676,"imation":3677,"Ġ244":3678,"acted":3679,"ĠDQ":3680,"107":3681,"groovy":3682,"Ġgetting":3683,"ĠExplorer":3684,"Ġoccurred":3685,"transport":3686,"ĠConfiguration":3687,"Ġinternal":3688,"urs":3689,"Property":3690,"566":3691,"ributed":3692,"Ġtransport":3693,"NullPointerException":3694,"700":3695,"Code":3696,"database":3697,"hould":3698,"query":3699,"Ġ322":3700,"128":3701,"506":3702,"0903":3703,"0825":3704,"chen":3705,"Ġcredentials":3706,"umb":3707,"ĠAdmin":3708,"Ġcommon":3709,"refix":3710,"foo":3711,"Ġattribute":3712,"Structured":3713,"Instance":3714,"XX":3715,"link":3716,"Ġdashboard":3717,"acle":3718,"ĠDB":3719,"Ġcontin":3720,"187":3721,"Ġassist":3722,"0222":3723,"tools":3724,"md":3725,"ances":3726,"Ġfew":3727,"Ġpers":3728,"Ġmov":3729,"ĠĠĠĠĠĠĠĠĠĠĠĠ":3730,"Ġform":3731,"Ġ218":3732,"ĠCore":3733,"Ġusage":3734,"views":3735,"0804":3736,"Ġuseful":3737,"ĠiPhone":3738,"Ġagent":3739,"Delegate":3740,"Ġagainst":3741,"hyde":3742,"SU":3743,"datab":3744,"iated":3745,"sure":3746,"Ġ,":3747,"ottom":3748,"ested":3749,"Ġproxy":3750,"olver":3751,"Ġstop":3752,"Cons":3753,"196":3754,"ssue":3755,"Ġreturned":3756,"Ġaccount":3757,"Ġseveral":3758,"MS":3759,"man":3760,"Ġ--------------------------------":3761,"Ġparent":3762,"Ġgre":3763,"ocol":3764,"ender":3765,"ĠRequest":3766,"Ġattempt":3767,"Ġallows":3768,"ĠRecovering":3769,"Password":3770,"fe":3771,"lat":3772,"Ġwrong":3773,"ceb":3774,"Ġown":3775,"ĠIP":3776,"Ġrather":3777,"proxy":3778,"docker":3779,"Ġenter":3780,"ĠCommand":3781,"].":3782,"la":3783,"shell":3784,"inst":3785,"Ġactivity":3786,"Ġcause":3787,"anel":3788,"Ġpersist":3789,"Ġ157":3790,"1117":3791,"move":3792,"Ġtables":3793,"Ġconsider":3794,"ropri":3795,"Once":3796,"etcher":3797,"da":3798,"field":3799,"te":3800,"height":3801,"ĠĠĠĠĠĠĠĠĠĠĠĠĠĠĠ":3802,"ĠAnd":3803,"ĠCurrently":3804,"rame":3805,"Ġalgorith":3806,"Ġ312":3807,"Replace":3808,"Events":3809,"Ġauto":3810,"workspace":3811,"Ġ547":3812,"Ġlooks":3813,"/#":3814,"Det":3815,"ners":3816,"ru":3817,"Ġborder":3818,"Ġmark":3819,"Ġnav":3820,"change":3821,"Ġ(/":3822,"125":3823,"Workspace":3824,"}},":3825,"Ġshort":3826,"Ġfixed":3827,"ĠContainer":3828,"StructuredViewer":3829,"AW":3830,"EC":3831,"hether":3832,"Ġclover":3833,"state":3834,"icasting":3835,"ableBeanFactory":3836,"Ġextr":3837,"Ġloading":3838,"ĠWindow":3839,"1113":3840,"Ġtimeout":3841,"Notification":3842,"ĠCreating":3843,"backgroundColor":3844,"SWT":3845,"null":3846,"tim":3847,"esh":3848,"hel":3849,"Ġexamples":3850,"ĠDet":3851,"ĠInst":3852,"ĠXcode":3853,"Unified":3854,"Ġreports":3855,"BundleLoader":3856,"AbstractMessageChannel":3857,"SafeRunner":3858,"Ġ5847":3859,"':":3860,"Linux":3861,"Layout":3862,"Typ":3863,"bb":3864,"confluence":3865,"0925":3866,"Ġworkspace":3867,"berry":3868,"Ġdescri":3869,"ĠRuntime":3870,"lackberry":3871,"Ġvalidation":3872,"Analysis":3873,"Ġremote":3874,"'ll":3875,"808":3876,"Lif":3877,"batch":3878,"of":3879,"Ġdest":3880,"estamp":3881,"Ġ306":3882,"Ġappropri":3883,"Ġdevelopment":3884,"light":3885,"Ġmechanism":3886,"676":3887,"Enable":3888,"page":3889,"tal":3890,"ĠLoc":3891,"TRACE":3892,"Allow":3893,"Ġoperations":3894,"='":3895,"AB":3896,"DQ":3897,"RUN":3898,"Synchron":3899,"sf":3900,"Ġcap":3901,"definition":3902,"iling":3903,"ptim":3904,"ump":3905,"Ġ262":3906,"Ġcomment":3907,"viewers":3908,"Ġdeprec":3909,"Common":3910,"Ġstatic":3911,"legal":3912,"ENT":3913,"DoFilter":3914,"Ġqueue":3915,"zip":3916,"ories":3917,"Ġhad":3918,"ĠAss":3919,"older":3920,"STUD":3921,"Ġdirectly":3922,"Ġimplemented":3923,"actions":3924,"Ġmanually":3925,"Ġstructure":3926,"white":3927,"Environment":3928,"alytics":3929,"Operation":3930,"Filesystem":3931,"Ġdiscussion":3932,"Around":3933,"CH":3934,"Direct":3935,"document":3936,"Ġspl":3937,"edu":3938,"ĠCannot":3939,"emory":3940,"obuf":3941,"=\"/":3942,"().":3943,"Ġunable":3944,"tings":3945,"Ġstorage":3946,"Ġdeleted":3947,"Recovery":3948,"AroundInterceptor":3949,"cocoa":3950,"ie":3951,"mail":3952,"with":3953,"Ġstory":3954,"Ġdefine":3955,"runWith":3956,"izing":3957,"readAnd":3958,"respond":3959,"Search":3960,"Ġcgroups":3961,"readAndDispatch":3962,"Iter":3963,"cli":3964,"lder":3965,"persistence":3966,"ĉĉ":3967,"Ġfuture":3968,"Ġdeter":3969,"Ġglobal":3970,"object":3971,"1124":3972,"internalDoFilter":3973,"createButton":3974,"Unicasting":3975,"Ġavoid":3976,"Preference":3977,"color":3978,"LaunchConfiguration":3979,"Ġelse":3980,"IDEApplication":3981,"Ġparticular":3982,"UnicastingDispatcher":3983,"right":3984,"ari":3985,"ulate":3986,"Ġnote":3987,"Ġlogin":3988,"oute":3989,"Ġrequests":3990,"Ġ7568":3991,"Alloy":3992,"MOB":3993,"Ġcorrespond":3994,"CRAM":3995,"Drawable":3996,"Master":3997,"block":3998,"ea":3999,"mq":4000,"tain":4001,"Ġpython":4002,"studio":4003,"Ġprovider":4004,"ĠCopy":4005,"185":4006,"ROOT":4007,"Ġattach":4008,"Ġcontainers":4009,"Auto":4010,"ĠSTART":4011,"Ġfreemarker":4012,"Lifecycle":4013,"']":4014,"After":4015,"EL":4016,"He":4017,"Mesos":4018,"Ġjvm":4019,"msg":4020,"ĠAppcelerator":4021,"commons":4022,"Ġregistration":4023,"structor":4024,"DrawableReference":4025,"Bamboo":4026,"LSST":4027,"ND":4028,"Rest":4029,"ique":4030,"raries":4031,"su":4032,"Ġ56":4033,"Ġtemplates":4034,"Ġtotal":4035,"Ġbl":4036,"Ġbasic":4037,"ious":4038,"Changes":4039,"ActionContributionItem":4040,"Ġmeet":4041,"ngth":4042,"Ġthough":4043,"missions":4044,"Ġincorrect":4045,"));":4046,"Use":4047,"feature":4048,"native":4049,"zar":4050,"Ġmade":4051,"Ġmigr":4052,"uri":4053,"Ġdecl":4054,"activ":4055,"Inter":4056,"console":4057,"ferred":4058,"ĠOut":4059,"okke":4060,"notation":4061,"Ġentry":4062,"Ġteam":4063,"cpu":4064,"*,":4065,"BlackBerry":4066,"Shell":4067,"XF":4068,"Ġaround":4069,"Ġsolution":4070,"Ġwhether":4071,"Ġbit":4072,"Ġthings":4073,"Ġ133":4074,"imate":4075,"Ġproblems":4076,"EventLoop":4077,"Ġtrace":4078,"Response":4079,"Ġlookup":4080,"duced":4081,"horization":4082,"\";":4083,"Super":4084,"Ġign":4085,"araf":4086,"Ġnever":4087,"Ġremain":4088,"ĠTry":4089,"execution":4090,"Ġdoing":4091,"ĠOK":4092,"ĠRegister":4093,"tenance":4094,"Description":4095,"Ġpackaging":4096,"Modal":4097,"present":4098,"71":4099,"AV":4100,"CE":4101,"Database":4102,"Le":4103,"Wh":4104,"kins":4105,"ses":4106,"atic":4107,"Ġ28":4108,"Ġdeveloper":4109,"ĠMessage":4110,"ĠMake":4111,"ĠFire":4112,"126":4113,"works":4114,"ĠVal":4115,"Ġrefactor":4116,"Ġconfigured":4117,"Ġexplicit":4118,"=$":4119,"IG":4120,"custom":4121,"df":4122,"mun":4123,"Ġ^":4124,"ĠâĶ":4125,"Ġsecurity":4126,"Ġclear":4127,"ames":4128,"Ġdec":4129,"Ġrange":4130,"Ġcomments":4131,"Indic":4132,"103":4133,"188":4134,"Improve":4135,"ĠUnable":4136,"ipant":4137,"Executors":4138,"Ġendpoints":4139,"DBC":4140,"Ġcoverage":4141,"322":4142,"dhyde":4143,"rules":4144,"sers":4145,"way":4146,"Ġmuch":4147,"Ġmakes":4148,"eline":4149,"ctions":4150,"508":4151,"Ġimp":4152,"Ġjar":4153,"Ġ-->":4154,"trace":4155,"Ġparsing":4156,"Output":4157,"UnifiedBuilder":4158,"Ccd":4159,"hary":4160,"llegal":4161,"roy":4162,"Ġ210":4163,"olume":4164,"Ġlayout":4165,"Ġallowing":4166,"ĠWS":4167,"udhary":4168,"ĠProblem":4169,"Ġrequirements":4170,"99999999":4171,"Ġroute":4172,"Timeout":4173,":>":4174,">::":4175,"Twitter":4176,"vc":4177,"Ġaffect":4178,"Ġsent":4179,"alone":4180,"Ġitself":4181,"ries":4182,"Exp":4183,"Initial":4184,"ĠMoodle":4185,"runners":4186,"ĠFramework":4187,"ĠStream":4188,"soap":4189,"ĠTiApplication":4190,"OST":4191,"Ġgets":4192,"Ġkeep":4193,"ameter":4194,"ĠImage":4195,"Ġicons":4196,"Ġoffers":4197,"Ġtimes":4198,"Ġproposal":4199,"'re":4200,"206":4201,"332":4202,"CA":4203,"Pol":4204,"dition":4205,"ock":4206,"tab":4207,"wizard":4208,"err":4209,"Ġcapt":4210,"lok":4211,"ĠRUN":4212,"137":4213,"Ġupgrade":4214,"ording":4215,"Ġlikely":4216,"Ġquot":4217,"Ġmeans":4218,"Ġassoc":4219,"ĠDevice":4220,"Ġcoordinator":4221,"Ġacross":4222,"Ġcrashes":4223,"RecoveryTest":4224,"*)":4225,"Fl":4226,"ccept":4227,"Ġ~":4228,"env":4229,"Ġmax":4230,"rometry":4231,"runEventLoop":4232,"Ġelements":4233,"0813":4234,"ĠUse":4235,"question":4236,"output":4237,"MessageProcessor":4238,"ifications":4239,"Ġarch":4240,"____":4241,"Ġincluding":4242,"choudhary":4243,"ĠCoordinator":4244,"eshchoudhary":4245,"Ġappropriate":4246,"302":4247,"></":4248,"Cre":4249,"initial":4250,"lot":4251,"Selection":4252,"Ġdebugging":4253,"Isolator":4254,"Mobile":4255,"cry":4256,"gener":4257,"erge":4258,"request":4259,"Ġnice":4260,"Ġreading":4261,"Ġprogress":4262,"018":4263,"lert":4264,"ĠFrom":4265,"Ġselection":4266,"Ġ455":4267,"Ġchild":4268,"Ġundefined":4269,"ĠGo":4270,"WorkbenchPage":4271,"aches":4272,"awt":4273,"Ġcontainerizer":4274,"âĶĢâĶĢ":4275,"lokeshchoudhary":4276,"Cap":4277,"CLI":4278,"Match":4279,"SF":4280,"Ġsite":4281,"enar":4282,"Ġpublish":4283,"otype":4284,"ĠPython":4285,"Ġrecent":4286,"ĠSTARTING":4287,"Admin":4288,"IO":4289,"MP":4290,"Parent":4291,"Xml":4292,"ws":4293,"orld":4294,"enkins":4295,"icro":4296,"ĠCould":4297,"Expected":4298,"Ġexit":4299,"anged":4300,"uby":4301,"ĠLe":4302,"ystrix":4303,"Ġtheme":4304,"ĠRunning":4305,"plete":4306,"Ġtools":4307,"Foundation":4308,"bay":4309,"sim":4310,"att":4311,"ater":4312,"Ġdocs":4313,"Ġ()":4314,"ĠRE":4315,"ocable":4316,"mitt":4317,"Schedule":4318,"uffer":4319,"empor":4320,"213":4321,"Aop":4322,"Right":4323,"ied":4324,"mort":4325,"vn":4326,"yper":4327,"Ġbuilt":4328,"verse":4329,"ĠCSS":4330,"old":4331,"Ġstyle":4332,"108":4333,"oper":4334,"Prot":4335,"ĠResources":4336,"Ġpreferences":4337,"ChildrenCache":4338,"mortbay":4339,"211":4340,"255":4341,"Function":4342,"ault":4343,"pack":4344,"Ġactive":4345,"alc":4346,"ĠClient":4347,"ĠPHP":4348,"irtual":4349,"soft":4350,"ĠtabGroup":4351,"which":4352,"OME":4353,"><":4354,"CF":4355,"Dis":4356,"Element":4357,"LL":4358,"My":4359,"based":4360,"fly":4361,"long":4362,"ination":4363,"Ġtwitter":4364,"ceive":4365,"secs":4366,"Ġisn":4367,"Ġbean":4368,"press":4369,"ĠMap":4370,"prot":4371,"eedback":4372,"ixel":4373,"velopment":4374,"Ġkeyboard":4375,"ĠChange":4376,"Ġbroken":4377,"scrib":4378,"ĠAPP":4379,"664":4380,"Case":4381,"ĠZ":4382,"Ġph":4383,"Ġdriver":4384,"ĠSQL":4385,"istr":4386,"olved":4387,"owire":4388,"Ġexpect":4389,"ĠNumber":4390,"ĠThat":4391,"287":4392,"597":4393,"Ġpreference":4394,"ifier":4395,"Ġconsumer":4396,"Ġrefresh":4397,"Ġvisible":4398,"counter":4399,"Ġmeasurement":4400,"tasks":4401,"Ġmachine":4402,"Indicator":4403,"Click":4404,"Gr":4405,"UPS":4406,"bec":4407,"domain":4408,"tn":4409,"Ġ255":4410,"ains":4411,"Ġexecute":4412,"Connect":4413,"const":4414,"Ġaggreg":4415,"ModuleDeployer":4416,"PathChildrenCache":4417,"dispatcher":4418,"ĠPreferences":4419,"Synchronizer":4420,"evaluate":4421,"fw":4422,"gin":4423,"iro":4424,"lers":4425,"erv":4426,"astr":4427,"lied":4428,"ĠSAM":4429,"Ġalloc":4430,"Ġapply":4431,"AppData":4432,"ĠOr":4433,"ĠGr":4434,"utils":4435,"rcp":4436,"Ġintegr":4437,"Ġcorresponding":4438,".\"":4439,"Ġsort":4440,"acy":4441,"133":4442,"Tests":4443,"BuildPath":4444,"530":4445,"LECT":4446,"ĠDefault":4447,"Ġlinks":4448,"Ġprint":4449,"Ġsending":4450,"MessagingTemplate":4451,"Size":4452,"ick":4453,"like":4454,"ecure":4455,"apid":4456,"epend":4457,"ĠFiles":4458,"235":4459,"testing":4460,"0211":4461,"ESS":4462,")[:":4463,"Ġthrown":4464,"meas":4465,"rootd":4466,"frastr":4467,"SUB":4468,"Scheduled":4469,"FF":4470,"Virtual":4471,"from":4472,"font":4473,"gen":4474,"mx":4475,"zer":4476,"alle":4477,"Ġmaven":4478,"Ġreally":4479,"Ġ274":4480,"Ġrule":4481,"acs":4482,"aced":4483,"296":4484,"builder":4485,"Ġstartup":4486,"ĠApplication":4487,"/_":4488,"Json":4489,"Pattern":4490,"doc":4491,"driver":4492,"mt":4493,"Ġcatalog":4494,"anced":4495,"Ġmanagement":4496,"Ġreal":4497,"Ġ257":4498,"Ġprogram":4499,"Ġalloy":4500,"Status":4501,"Ġvoid":4502,"140":4503,"171":4504,"Ġruns":4505,"Ġide":4506,"Ġtrack":4507,"Ġarray":4508,"Column":4509,"Ġrecovery":4510,"Ġ../../../../../../":4511,"ĠFailure":4512,"frastructure":4513,"501":4514,"DO":4515,"Mapper":4516,"Package":4517,"];":4518,"br":4519,"nav":4520,"vant":4521,"Ġfree":4522,"ĠSh":4523,"Ġextend":4524,"strain":4525,"monitor":4526,"Containerizer":4527,"Ġhandling":4528,"ModalContext":4529,"${":4530,"Back":4531,"UR":4532,"close":4533,"ĠZooKeeper":4534,"Ġredis":4535,"imum":4536,"ĠCI":4537,"Ġiter":4538,"129":4539,"Ġseem":4540,"0905":4541,"ĠBlackBerry":4542,"241":4543,"ĠSDKs":4544,"........":4545,"Ġoriginal":4546,"SUBENTRY":4547,"By":4548,"CC":4549,"Cloud":4550,"GRO":4551,"Media":4552,"Root":4553,"iver":4554,"mac":4555,"mark":4556,"oin":4557,"Ġbottom":4558,"liver":4559,"Ġrepo":4560,"ĠSki":4561,"icipant":4562,"Ġprofile":4563,"Ġnotification":4564,"oss":4565,"Ġapps":4566,"ĠEclipse":4567,"AbstractAut":4568,"Ġbuilder":4569,"Ġstarting":4570,"Ġnamespace":4571,"Ġvariables":4572,"Ġrows":4573,"TreeViewer":4574,"CapableBeanFactory":4575,"owireCapableBeanFactory":4576,"AbstractAutowireCapableBeanFactory":4577,"._":4578,"Block":4579,"ek":4580,"tx":4581,"asl":4582,"using":4583,"Ġallocation":4584,"ĠNOT":4585,"2679":4586,"There":4587,"ffff":4588,"Ġprocessor":4589,"Assert":4590,"handleEvent":4591,"Doc":4592,"Sync":4593,"jax":4594,"mysql":4595,"ern":4596,"Ġnodes":4597,"Ġask":4598,"Style":4599,"Ġeffect":4600,"Read":4601,"Registr":4602,"237":4603,"Ġinstances":4604,"AbstractBeanFactory":4605,"Ġcompat":4606,"IRA":4607,"))":4608,"air":4609,"ience":4610,"Ġtap":4611,"eners":4612,"Ġprefix":4613,"limit":4614,"ĠDE":4615,"117":4616,"130":4617,"ROM":4618,"result":4619,"Ġshowing":4620,"Ġcollection":4621,"Lock":4622,"scheduler":4623,"Ġshared":4624,"Ġpackages":4625,"ĠCoreFoundation":4626,"Ġassociated":4627,"icrosoft":4628,"Actual":4629,"Dynamic":4630,"Ġsrc":4631,"Ġbad":4632,"ĠRem":4633,"ride":4634,"Ġequ":4635,"227":4636,"ĠLinux":4637,"ributes":4638,"Ġprevent":4639,"HttpClient":4640,"Ġpassed":4641,"Locator":4642,":]":4643,"IS":4644,"Kroll":4645,"Need":4646,"buntu":4647,"package":4648,"ze":4649,"Ġep":4650,"Ġsay":4651,"Ġcamera":4652,"search":4653,"ĠTable":4654,"hop":4655,"Ġlot":4656,"observable":4657,"111":4658,"::_":4659,"Ġscope":4660,"Ġ--->":4661,"Ġstrategy":4662,"Ġindicator":4663,"Generic":4664,"ImageView":4665,"Ġartifact":4666,"ĠAuthenticating":4667,"DFS":4668,"corp":4669,"Ġdeprecated":4670,"Aware":4671,"Multi":4672,"Next":4673,"cb":4674,"cut":4675,"make":4676,"pare":4677,"tifact":4678,"uce":4679,"yml":4680,"deo":4681,"ention":4682,"ĠIDE":4683,"aged":4684,"elli":4685,"Ġgot":4686,"ayer":4687,"1120":4688,"conc":4689,"ViewProxy":4690,"Composite":4691,"worksp":4692,"ModuleContainer":4693,"Ġconsistent":4694,"Ġimportant":4695,"ServletFilter":4696,"ServletHandler":4697,"Ġprincipal":4698,"blobstore":4699,"Ġcharacters":4700,"databinding":4701,"runWithDefault":4702,"Home":4703,"Host":4704,"yg":4705,"Ġsources":4706,"enable":4707,"delete":4708,"urther":4709,"andom":4710,"Ġcomput":4711,"Progress":4712,"123":4713,"ĠThese":4714,"(),":4715,"268":4716,"ĠHere":4717,"Ġensure":4718,"ASE":4719,"Ġparser":4720,"ĠAPIs":4721,"Ġclicking":4722,"lsstsw":4723,"Ġoccurs":4724,"emporary":4725,"atter":4726,"Ġafw":4727,"remove":4728,"Ġmoodle":4729,"licy":4730,"Intercept":4731,"izen":4732,"UID":4733,"Ġresolve":4734,"449":4735,"mount":4736,"340":4737,"invokeFramework":4738,"TiViewProxy":4739,"888":4740,"Ġhandler":4741,"aaaa":4742,"Consumer":4743,".)":4744,"Maven":4745,"Monitor":4746,"Section":4747,"ded":4748,"ia":4749,"maven":4750,"payload":4751,"Ġtrun":4752,"render":4753,"ĠAccept":4754,"Ġnothing":4755,"ĠDis":4756,"formed":4757,"irm":4758,"ĠGoogle":4759,"Ġhook":4760,"Ġlisted":4761,"Ġrecord":4762,"Ġoptional":4763,"basicRun":4764,"Ġdisabled":4765,"Ġsmall":4766,"Ġperspective":4767,"Typed":4768,"txt":4769,"208":4770,"410":4771,"DIR":4772,"EX":4773,"Illegal":4774,"MBean":4775,"Metrics":4776,"Port":4777,"RC":4778,"dur":4779,"full":4780,"kroll":4781,"label":4782,"site":4783,"Ġpayload":4784,"sequ":4785,"Ġdur":4786,"Ġhadoop":4787,"ĠCRAM":4788,"Ġstud":4789,"Ġ-[":4790,"ĠDocument":4791,"ĠMES":4792,"runApplication":4793,"Ġcreates":4794,"control":4795,"Ġintro":4796,"configure":4797,"Generator":4798,"nipp":4799,"Ġverify":4800,"Ġassignment":4801,"ModuleContainerFilter":4802,"ServletFilterModuleContainerFilter":4803,"304":4804,"Ag":4805,"Down":4806,"MQ":4807,"Ġtakes":4808,"Ġactiv":4809,"Ġbundle":4810,"Ġpull":4811,"ĠRemove":4812,"Ġcommit":4813,"ĠMac":4814,"Ġarea":4815,"ĠBamboo":4816,"Ġchunk":4817,"Ġrepos":4818,"ngine":4819,"curs":4820,"Ġunderstand":4821,"Ġclosed":4822,"Ġcapture":4823,"\"}":4824,"Att":4825,"Fail":4826,"Messages":4827,"Ret":4828,"naps":4829,"vin":4830,"erify":4831,"ature":4832,"Ġali":4833,"Ġsamples":4834,"itude":4835,"Ġfoo":4836,"alvi":4837,"ĠĠĠĊ":4838,"device":4839,"strometry":4840,"Ġorientation":4841,"aders":4842,"ĠCode":4843,"Ġguide":4844,"Install":4845,"ĠMDL":4846,"ĠBe":4847,"EventQueue":4848,"timeout":4849,"Ġyet":4850,"Resolver":4851,"Ġrecogn":4852,"0527":4853,"END":4854,"Ġthrows":4855,"Ġbreakpoint":4856,"52576":4857,"ĠSimulator":4858,"ĠDura":4859,"Ġ21809":4860,"Ġ2856":4861,"alvik":4862,"IP":4863,"around":4864,"dp":4865,"medi":4866,"ough":4867,"uc":4868,"iss":4869,"aved":4870,"development":4871,"Ġpress":4872,"Ġmapping":4873,"igation":4874,"186":4875,"2008":4876,"ĠLooking":4877,"****************":4878,"alibrate":4879,"155":4880,"314":4881,"511":4882,"801":4883,"Be":4884,"Ġ?":4885,"Ġboot":4886,"Ġmanager":4887,"Ġnested":4888,"ĠShould":4889,"executor":4890,"Ġscenar":4891,"aunched":4892,"153":4893,"240":4894,"Ġsimply":4895,"ĠQuery":4896,"Ġrefused":4897,"ĠOne":4898,"Ġdetermine":4899,"Ġmeeting":4900,".-":4901,"Target":4902,"javascript":4903,"size":4904,"ora":4905,"Ġsw":4906,"Ġsql":4907,"Ġrepresent":4908,"ĠRedis":4909,"Ġlanguage":4910,"ĠDatabase":4911,"ĠModules":4912,"objc":4913,"runUI":4914,"plex":4915,"161":4916,"Ġjavax":4917,"ssl":4918,"Ġrole":4919,"Refactor":4920,"ĠĠĠĠĠĠĠĠĠĠĠĠĠĠĠĠĠĠĠĠĠĠĠĠĠĠĠĠĠĠĠĠĠĠĠĠĠĠĠĠĠĠĠĠĠĠĠĠĠĠĠĠĠĠĠĠĠĠĠĠĠĠĠĠĠĠĠĠĠĠĠĠĠĠĠĠĠĠĠĠĠĠĠĠĠĠĠĠĠĠĠĠĠĠĠĠĠĠĠĠĠĠĠĠĠĠĠĠĠĠĠĠĠĠĠĠĠĠĠĠĠĠĠĠĠĠĠĠ":4921,"Argument":4922,"Transaction":4923,"423":4924,"Git":4925,"iper":4926,"ued":4927,"inbound":4928,"ored":4929,"item":4930,"Ġfinal":4931,"Ġmean":4932,"Ġ29":4933,"ĠAND":4934,"Ġones":4935,"andbox":4936,"Ġdemo":4937,"ĠRight":4938,"Ġallocator":4939,"ĠDashboard":4940,"ĠMaven":4941,"112":4942,"ĠFROM":4943,"Provide":4944,"boot":4945,"::__":4946,"ĠJIRA":4947,"53443":4948,"Ġlibraries":4949,"param":4950,"wever":4951,"Ġlater":4952,"Ġstrings":4953,"AbstractMessageHandler":4954,"Ġ2764":4955,"Ġpicker":4956,"lify":4957,"IsolatorTest":4958,"scribable":4959,".*":4960,">>":4961,"Clean":4962,"CSA":4963,"OP":4964,"Save":4965,"Sink":4966,"WS":4967,"lay":4968,"metadata":4969,"atistics":4970,"Ġbound":4971,"verter":4972,"Ġlock":4973,"Ġappend":4974,"ĠEvent":4975,"Ġ20150":4976,"Ġhowever":4977,"Scheduler":4978,"ierarchy":4979,"commands":4980,"While":4981,"404":4982,"Off":4983,"gs":4984,"meta":4985,"Ġcurl":4986,"Ġos":4987,"Ġthree":4988,"Ġhref":4989,"Ġcommun":4990,"Ġlines":4991,"apps":4992,"lected":4993,"ApplicationImpl":4994,"ĠExecutor":4995,"ĠExample":4996,"posed":4997,"Invok":4998,"Ġgoing":4999,"RequestFilter":5000,"AndroidRuntime":5001,"Ġeverything":5002,"PerRequestFilter":5003,"OncePerRequestFilter":5004,"napshot":5005,"344":5006,"cast":5007,"jdk":5008,"mulator":5009,"twitter":5010,"Ġfont":5011,"Ġfired":5012,"unknown":5013,"Ġmaking":5014,"Ġnet":5015,"status":5016,"ĠSome":5017,"pth":5018,"Ġexpl":5019,"stru":5020,"Ġ||":5021,"duction":5022,"Ġ};":5023,"Ġchecked":5024,"Ġopened":5025,"Ġzip":5026,"authentic":5027,"Ġarguments":5028,"215":5029,">,":5030,"MB":5031,"SER":5032,"Token":5033,"yote":5034,"Ġrealm":5035,"Ġrender":5036,"Ġreceive":5037,"ĠSocket":5038,"Ġhit":5039,"expected":5040,"Ġpromis":5041,"oll":5042,"1211":5043,"Ġworker":5044,"post":5045,"ĠResource":5046,"Ġcheckbox":5047,"Ġembed":5048,"ActivityThread":5049,"queue":5050,"Ġxmlns":5051,"ĠEditor":5052,"Ġfinish":5053,"DN":5054,"Flow":5055,"LD":5056,"case":5057,"dc":5058,"uuid":5059,"Ġlic":5060,"Ġpe":5061,"Ġinfrastructure":5062,"ĠTool":5063,"ĠSince":5064,"ĠAt":5065,"olves":5066,"Ġgu":5067,"Ġdocker":5068,"Ġspaces":5069,"aws":5070,"Ġconnections":5071,"ĠĠĉĉĉĉ":5072,"Ġregistered":5073,"Ġtech":5074,"secret":5075,"ĠMESOS":5076,"*.":5077,"All":5078,"\\\":":5079,"iag":5080,"jni":5081,"rint":5082,"umal":5083,"Ġgroovy":5084,"Inbound":5085,"forum":5086,"Release":5087,"ĠNow":5088,"library":5089,"ĠOR":5090,"ffic":5091,"462":5092,"posure":5093,"heme":5094,"Ġflags":5095,"Participant":5096,"Ġgrad":5097,"ĠDocker":5098,"Ġtried":5099,"ParentRunner":5100,"Registrar":5101,"iperumal":5102,"Nov":5103,"rtual":5104,"length":5105,"Ġnorm":5106,"Ġconversion":5107,"Ġ'#":5108,"Console":5109,"Ġlow":5110,"184":5111,"----------":5112,"ĠInter":5113,"Handling":5114,"Ġchecks":5115,"ListenerContainer":5116,"backup":5117,"Ġpartition":5118,"Ġlaunching":5119,"Ġstored":5120,"Ġpopup":5121,"Ġproduction":5122,"ĠDescription":5123,"Ġcharacter":5124,"coding":5125,"512":5126,":\\\\":5127,"Current":5128,"LT":5129,"Move":5130,"['":5131,"haps":5132,"Ġutil":5133,"ename":5134,"Ġ{\"":5135,"170":5136,"173":5137,"itories":5138,"Ġenough":5139,"Ġframeworks":5140,"Ġentity":5141,"Ġapplications":5142,"bda":5143,"Ġeasy":5144,"Observable":5145,"400":5146,"CL":5147,"][":5148,"password":5149,"left":5150,"ĠAd":5151,"ĠClass":5152,"ĠPSF":5153,"Ġalong":5154,"Init":5155,"ĠĠĠĠĠĠĠĠĠĠĠĠĠĠĠĠĠĠĠĠĠĠĠĠĠ":5156,"commit":5157,"Import":5158,"ĠHDFS":5159,"276":5160,"trigger":5161,"anner":5162,"Ġvarious":5163,"doSend":5164,"screen":5165,"newkey":5166,"){":5167,"209":5168,"7530":5169,"939":5170,"VM":5171,"eas":5172,"reference":5173,"itchen":5174,"Ġpid":5175,"Ġplease":5176,"Ġdomain":5177,"rict":5178,"Export":5179,"ĠWith":5180,"ĠĠĠĠĠĠĠĠĠĠĠĠĠĠĠĠĠĠĠĠ":5181,"force":5182,"component":5183,"ĠNCSA":5184,"504":5185,"ĠBatch":5186,"346":5187,"redacted":5188,"Ġposs":5189,"ĠConnection":5190,"Ġcontents":5191,"parser":5192,"âĢĻ":5193,"Ġmaintenance":5194,"Ġdevelopers":5195,"ĠLoading":5196,"Ġprototype":5197,"CATE":5198,"Ġapproach":5199,"ursor":5200,"Ġpersistent":5201,"456":5202,"OVER":5203,"xer":5204,"Ġczar":5205,"ali":5206,"Ġinstrument":5207,"Ġok":5208,"amily":5209,"Ġhdfs":5210,"atcher":5211,"151":5212,"447":5213,"INST":5214,"Ġlogic":5215,"384":5216,"461":5217,"305":5218,"notify":5219,"depend":5220,"TIMOB":5221,"216":5222,"600":5223,"IOS":5224,"JUnit":5225,"Vis":5226,"faces":5227,"samples":5228,"Ġĉ":5229,"Ġturn":5230,"only":5231,"Ġwon":5232,"otential":5233,"istory":5234,"Ġra":5235,"Ġlaunched":5236,"ĠFQ":5237,"262":5238,"button":5239,"Ġemail":5240,"Ġchoose":5241,"Ġboard":5242,"latest":5243,"Polling":5244,"ĠAPPEND":5245,"TypedListener":5246,"311":5247,"Engine":5248,"Issue":5249,"caches":5250,"eo":5251,"Ġ----":5252,"Ġsync":5253,"ett":5254,"Ġred":5255,"ĠTab":5256,"Ġbegin":5257,"ĠCXF":5258,"ackson":5259,"ially":5260,"55566":5261,"ĠTiDrawableReference":5262,"Ġreplic":5263,"Ġchanging":5264,"ĠCons":5265,"handlers":5266,"Investigate":5267,"LEASE":5268,"Ġdetail":5269,"Ġentire":5270,"Parameter":5271,"Write":5272,"Ġcompletion":5273,"Ġpoints":5274,"Ġwarnings":5275,"caught":5276,"Ġproduct":5277,"Ġwritten":5278,"Ġwhole":5279,"Ġcontinue":5280,"ĠâĶľ":5281,"ĠSkipping":5282,"ellij":5283,"alvikvm":5284,"401":5285,"ME":5286,"Security":5287,"cus":5288,"vate":5289,"{\"":5290,"Ġ%":5291,"requ":5292,"ĠThen":5293,"ĠSE":5294,"Ġdevices":5295,"ĠDate":5296,"property":5297,"ird":5298,"Ġwhy":5299,"Ġtested":5300,"Changed":5301,"239":5302,"());":5303,"ĠHel":5304,"ipeline":5305,"Ġfailing":5306,"Ġdisplays":5307,"flags":5308,"Integration":5309,"ĠWhat":5310,"17458":5311,"Ġwriting":5312,"Ġexecuted":5313,"ĠTISTUD":5314,"becla":5315,"Ġstudent":5316,"!/":5317,"329":5318,"body":5319,"gn":5320,"Ġsk":5321,"Ġsaved":5322,"Ġduplicate":5323,"urable":5324,"005":5325,"imes":5326,"ĠAg":5327,"Ġcondition":5328,"Properties":5329,"intellij":5330,"(){":5331,"duct":5332,"Ġip":5333,"clud":5334,"most":5335,"achines":5336,"Ġservers":5337,"Ġstreams":5338,"Param":5339,"Ġcompile":5340,"Ġeasily":5341,"DebugConnection":5342,"ĠFQDN":5343,"='.":5344,"Cp":5345,"go":5346,"erved":5347,"Ġsupp":5348,"ites":5349,"analysis":5350,"Ġdir":5351,"hough":5352,"Ġ138":5353,"emulator":5354,"Ġstand":5355,"kevin":5356,"Ġnotes":5357,"Constructor":5358,"apped":5359,"ĠWr":5360,"ĠFin":5361,"121":5362,"131":5363,"146":5364,"156":5365,"ASH":5366,"Ġparse":5367,"ĠAdded":5368,"895":5369,"Schema":5370,"arness":5371,"ĠKitchen":5372,"Ġ2639":5373,"sdl":5374,"ĠUpdates":5375,"Ġalgorithm":5376,"355":5377,"406":5378,":\"":5379,"AX":5380,"Mac":5381,"PRO":5382,"URI":5383,"ae":5384,"release":5385,"Ġfit":5386,"Ġpixel":5387,"Ġinit":5388,"Ġdrag":5389,"Ġisolator":5390,"Ġ25":5391,"ica":5392,"olation":5393,"runAsync":5394,"ĠEmulator":5395,"ĠLite":5396,"Ġunique":5397,"createView":5398,"Ġsocket":5399,"spec":5400,"ContainerRegistrar":5401,":'#":5402,"RELEASE":5403,"ExecutionInterceptor":5404,"Ġseconds":5405,"Ġtimed":5406,"scripting":5407,"ÂłĠ":5408,"ĠDeployment":5409,"allel":5410,"ĠâĶľâĶĢâĶĢ":5411,"runAsyncMessages":5412,"CP":5413,"pull":5414,"Ġcorre":5415,"Ġpush":5416,"astic":5417,"ulk":5418,"usasl":5419,"exp":5420,"import":5421,"ĠCloud":5422,"Ġless":5423,"Ġexper":5424,"aniz":5425,"116":5426,"ubuntu":5427,"136":5428,"147":5429,"231":5430,"AbstractApplicationContext":5431,"ĠInvalid":5432,"Ġsoft":5433,"303":5434,"ĠConnect":5435,"ĠVM":5436,"Ġpreview":5437,"userPassword":5438,"Ġupdating":5439,"Upgrade":5440,"Ġbuttons":5441,"Ġcontaining":5442,"ATH":5443,"RIDE":5444,"cmusasl":5445,"Selector":5446,"ĠEnter":5447,"initialize":5448,"secretCRAM":5449,"OVERRIDE":5450,"cmusaslsecretCRAM":5451,"CON":5452,"HER":5453,"Location":5454,"Machines":5455,"Rem":5456,"has":5457,"messaging":5458,"void":5459,"ully":5460,"ambda":5461,"holder":5462,"acloud":5463,"active":5464,"ĠWill":5465,"ĠĠĠĠĠĠĠĠĠĠĠĠĠĠĠĠĠĠĠ":5466,"portal":5467,"Ġcancel":5468,"ĠJDBC":5469,"Ġios":5470,"477":5471,"resource":5472,"Ġcallback":5473,"Ġviews":5474,"afw":5475,"Collection":5476,"Ġmanifest":5477,"Ġplatforms":5478,"JavaVirtual":5479,"Ġediting":5480,"Statement":5481,"ĠCreated":5482,"AND":5483,"Ġcertific":5484,"umbers":5485,"Ġdestroy":5486,"workshop":5487,"ĠWSDL":5488,"JavaVirtualMachines":5489,"655":5490,"658":5491,"Cgroup":5492,"ECT":5493,"SI":5494,"Talend":5495,"mut":5496,"Ġapi":5497,"Ġtoken":5498,"Ġpc":5499,"Ġpur":5500,"ĠShell":5501,"pted":5502,"ector":5503,"ĠCF":5504,"ĠCol":5505,"osed":5506,"ĠPort":5507,"Ġ3022":5508,"Ġassert":5509,"udo":5510,"143":5511,"Apple":5512,"502":5513,"Deferred":5514,"178":5515,"1600":5516,"ĠURI":5517,"tical":5518,"createLabel":5519,"TestCase":5520,"Ġprocesses":5521,"Ġgeneral":5522,"FileSystem":5523,"ATE":5524,"Ġ./":5525,"lsstcorp":5526,"WebApplicationImpl":5527,"push":5528,"Ġcleanup":5529,"windowProc":5530,"-------------":5531,"HOME":5532,"bf":5533,"dialog":5534,"jb":5535,"management":5536,"oard":5537,"pag":5538,"pache":5539,"Ġfetch":5540,"Ġwiki":5541,"sem":5542,"imps":5543,"Ġoffer":5544,"Ġprovision":5545,"emfire":5546,"ift":5547,"apply":5548,"Ġloop":5549,"5050":5550,"Delete":5551,"199":5552,"Ġinstaller":5553,"ĠTiApp":5554,"273":5555,"Ġencounter":5556,"aste":5557,"ListView":5558,"ASK":5559,"Ġheaders":5560,"Ġanything":5561,"Ġremoving":5562,"Ġinterfaces":5563,"ĠImport":5564,"SSL":5565,"Ġstruct":5566,"Ġ&&":5567,"auto":5568,"Ġprovides":5569,"Ġpick":5570,"ĠStarting":5571,"AsyncProcessor":5572,"Ġdatas":5573,"ĠValue":5574,"MPTY":5575,"204":5576,"IFY":5577,"more":5578,"tle":5579,"heet":5580,"itect":5581,"ilities":5582,"Ġrepl":5583,"ĠText":5584,"exec":5585,"appcel":5586,"Ġlost":5587,"132":5588,"Ġdouble":5589,"176":5590,"ĠThread":5591,"Ġseen":5592,"ĠLSE":5593,"ĠOver":5594,"AbstractSub":5595,"249":5596,"ĠGet":5597,"HandPath":5598,"ipes":5599,"HandlerService":5600,"ibly":5601,"criptor":5602,"Ġpaths":5603,"Ġgrade":5604,"auth":5605,"ĠNotice":5606,"director":5607,"AWSS":5608,"8080":5609,"RightHandPath":5610,"RightHandPathRule":5611,"622":5612,"606":5613,"<<":5614,"px":5615,"sink":5616,"typ":5617,"uep":5618,"Ġes":5619,"ĠĠâĢĤ":5620,"reenshot":5621,"Ġcategory":5622,"Ġfeedback":5623,"als":5624,"Ġword":5625,"ĠTim":5626,"ĠTRUN":5627,"otal":5628,"ĠCC":5629,"ĠDist":5630,"ĠMay":5631,"runDeferred":5632,"115":5633,"ĠĠĠĠĠĠĠĠĠĠĠĠĠĠĠĠĠĠĠĠĠĠĠĠĠĠĠĠĠĠ":5634,"124":5635,"ĠLive":5636,"584":5637,"Ġfold":5638,"values":5639,"Ġclasspath":5640,"Ġconfigurations":5641,"Ġopens":5642,"Ġ87":5643,"REST":5644,"Frameworks":5645,"ĠOnly":5646,"Ġkind":5647,"Ġdiscover":5648,"Ġconfirm":5649,"description":5650,"Ġprior":5651,"ProgramData":5652,"Ġshortcut":5653,"Header":5654,"ueprint":5655,"ĠTRUNCATE":5656,"runDeferredEvents":5657,"HASH":5658,"KE":5659,"Nio":5660,"PHP":5661,"haus":5662,"panel":5663,"Ġq":5664,"Ġtemporary":5665,"lex":5666,"Ġoptim":5667,"ĠSystem":5668,"abling":5669,"Ġdev":5670,"ĠNeed":5671,"298":5672,"Ġattributes":5673,"ĠRepository":5674,"Ġstarts":5675,"Ġ168":5676,"Ġgoogle":5677,"ProjectWizard":5678,"KeeperException":5679,"Ġbehaviour":5680,"SocketImpl":5681,"RunnableLock":5682,"Callback":5683,"Ġregard":5684,"lign":5685,"azy":5686,"ĠLocator":5687,"']);":5688,"msgSend":5689,"ĠFirefly":5690,"ependency":5691,"InboundChannelAdapter":5692,"3234":5693,"count":5694,"iate":5695,"iPhone":5696,"sl":5697,"Ġerr":5698,"reconc":5699,"Ġpool":5700,"asali":5701,"Ġmonitor":5702,"---":5703,"ĠSSL":5704,"acity":5705,"thers":5706,"ĠEMPTY":5707,"505":5708,"181":5709,"ĠThey":5710,"INT":5711,"ants":5712,"762679":5713,"Ġvirtual":5714,"Ġvalidate":5715,"Ġcompleted":5716,"Preferences":5717,"Ġ3028":5718,"gorithms":5719,"201513":5720,"USER":5721,"ĠUpdating":5722,"Ġgreat":5723,"CommonReconc":5724,"287762679":5725,"Invoker":5726,"2877626796":5727,"=-":5728,"AIT":5729,"AGA":5730,"Hystrix":5731,"NAM":5732,"Present":5733,"earch":5734,"layout":5735,"save":5736,"when":5737,"Ġsnipp":5738,"Ġcalc":5739,"ison":5740,"rout":5741,"Ġpotential":5742,"Ġmanag":5743,"oment":5744,"hoto":5745,"ĠSending":5746,"plit":5747,"ĠCr":5748,"Ġraw":5749,"ĠRapid":5750,"ĠPath":5751,"appear":5752,"ended":5753,"134":5754,"Appcelerator":5755,"graph":5756,"152":5757,"158":5758,"256":5759,"ixed":5760,"Using":5761,"Ġfailures":5762,"Ġlistener":5763,"Ġquick":5764,"TitaniumSDK":5765,"741":5766,"Ġspecial":5767,"Ġentries":5768,"Auth":5769,"streams":5770,"Writer":5771,"Ġmatching":5772,"return":5773,"ĠOSG":5774,"VERIFY":5775,"Ġaccording":5776,"Ġdeleting":5777,"21045":5778,"ĠTrans":5779,"Ġcertain":5780,"GROUPS":5781,"Ġepic":5782,"ĠDuraCloud":5783,"ArgumentException":5784,"scribableChannel":5785,"='.$":5786,"AbstractSubscribableChannel":5787,"AGAINST":5788,"Dashboard":5789,"Hyper":5790,"Post":5791,"vas":5792,"wise":5793,"{{":5794,"Ġscons":5795,"Ġfurther":5796,"alk":5797,"dec":5798,"Ġinsert":5799,"ĠTO":5800,"istic":5801,"Ġdefin":5802,"ĠWarning":5803,"former":5804,"ĠStore":5805,"ĠStack":5806,"224":5807,"questions":5808,"ĠGit":5809,"mous":5810,"mins":5811,"ĠRef":5812,"ancel":5813,"ITE":5814,"Reflection":5815,"Format":5816,"Ġconnected":5817,"Ġdebugger":5818,"Ġmodal":5819,"classes":5820,"DeploymentListener":5821,"ĠDetect":5822,"Iterating":5823,"88899":5824,"Ġsoftware":5825,"HERE":5826,"160088899":5827,"&)":5828,"207":5829,"317":5830,"Temp":5831,"aj":5832,"bol":5833,"rl":5834,"though":5835,"vanced":5836,"Ġu":5837,"algorithms":5838,"ĠTime":5839,"adcast":5840,"images":5841,"ĠPar":5842,"102":5843,"ople":5844,"comm":5845,"558":5846,"AbstractService":5847,"Ġlogged":5848,"Ġfilesystem":5849,"Ġoversub":5850,"Ġending":5851,"ymbol":5852,"recipes":5853,"ĠComp":5854,"Ġloaded":5855,"tooling":5856,"Ġscreenshots":5857,"ĠWhile":5858,"BlobStore":5859,"Ġextra":5860,"PreferenceDialog":5861,"ĠRegistered":5862,"313":5863,"615":5864,"Date":5865,"FC":5866,"Fokke":5867,"Hidden":5868,"Nav":5869,"Secure":5870,"gz":5871,"Ġquestion":5872,"rep":5873,"Ġbind":5874,"ulated":5875,"Ġnumbers":5876,"Ġreferences":5877,"chain":5878,"ĠACS":5879,"External":5880,"ĠPublish":5881,"144":5882,"166":5883,"ĠUbuntu":5884,"Ġserial":5885,"Ġusername":5886,"368":5887,"Load":5888,"Ġcheckpoint":5889,"Ġdiff":5890,"ĠServices":5891,"Ġflak":5892,"onymous":5893,"Ġoperator":5894,"dater":5895,"Ġdefinitions":5896,"Ġrelevant":5897,"Ġquota":5898,"Ġembedded":5899,"ettuce":5900,"DI":5901,"DT":5902,"Mapping":5903,"Network":5904,"Retry":5905,"off":5906,"pri":5907,"sign":5908,"enus":5909,"Ġbas":5910,"Ġpres":5911,"ceiver":5912,"Ġinbound":5913,"ently":5914,"child":5915,"ĠIs":5916,"ĠTDQ":5917,"ĠSO":5918,"ĠSub":5919,"ĠCan":5920,"Execut":5921,"104":5922,"Step":5923,"183":5924,"Ġlet":5925,"169":5926,"197":5927,"AbstractPolling":5928,"292":5929,"mock":5930,"overage":5931,"Ġconfigurable":5932,"57018":5933,"loadClass":5934,"537":5935,"ĠReport":5936,"Ġinstalling":5937,"weight":5938,"Ġsystems":5939,"ĠTests":5940,"Ġinvolves":5941,"ĠSlaveRecoveryTest":5942,"Ġtargets":5943,"Ġvisual":5944,"interceptors":5945,"ĠArch":5946,"Ġsplash":5947,"macosx":5948,"ernel":5949,"Ġtrunc":5950,"pthread":5951,"xerces":5952,"?)":5953,"Alert":5954,"Count":5955,"Custom":5956,"CLO":5957,"eated":5958,"Ġ64":5959,"ores":5960,"alert":5961,"style":5962,"Ġothers":5963,"aming":5964,"ĠTASK":5965,"ĠSink":5966,"udit":5967,"codehaus":5968,"120":5969,"Ġlead":5970,"556":5971,"ĠHadoop":5972,"476":5973,"Ġeng":5974,"logging":5975,"Listeners":5976,"ĠprocessCcd":5977,"Ġstatistics":5978,"Ġgoes":5979,"ĠUIKit":5980,"Ġconsum":5981,"Ġ940":5982,"Ġmodify":5983,"ĠScheduler":5984,"Ġindicators":5985,"Ġincre":5986,"Ġmechanisms":5987,"Ġexecuting":5988,"TYPE":5989,"Ġretrieve":5990,"Ġwaiting":5991,"/#!/":5992,"ervation":5993,"AwareInterceptor":5994,"619":5995,"ZE":5996,"border":5997,"jenkins":5998,"ook":5999,"rs":6000,"tk":6001,"Ġfact":6002,"lies":6003,"Ġmult":6004,"Ġop":6005,"Ġanaly":6006,"agent":6007,"106":6008,"gether":6009,"ĠWHERE":6010,"Ġuncaught":6011,"580":6012,"Ġretry":6013,"375":6014,"Plan":6015,"Ġlibprocess":6016,"Ġshutdown":6017,"ĠAdding":6018,"ErrorHandling":6019,"ServletContainer":6020,"SocketInputStream":6021,"cgroups":6022,"WizardDialog":6023,"azon":6024,"Ġ------------------------------------------------":6025,"Protocol":6026,"ĠHelp":6027,"NAME":6028,"Basic":6029,"Cached":6030,"Calendar":6031,"Options":6032,"Pack":6033,"slaves":6034,"vocable":6035,"Ġsummary":6036,"isolator":6037,"anc":6038,"Ġindiv":6039,"aml":6040,"ĠSp":6041,"ides":6042,"users":6043,"ĠActivity":6044,"ĠRabbit":6045,"Extr":6046,"Extension":6047,"ĠPhone":6048,"Ġshouldn":6049,"ĠGener":6050,"ĠInc":6051,"Ġdefaults":6052,"Ġchecking":6053,"Ġhandled":6054,"Ġvideo":6055,"fcasali":6056,"interval":6057,"ĠSearch":6058,"ĠIntegration":6059,"000000000000":6060,"ĠEdit":6061,"~~~~":6062,"fedora":6063,"////////////////":6064,"fficient":6065,"Ġindivid":6066,"300":6067,"323":6068,"Can":6069,"Clover":6070,"Close":6071,"Driver":6072,"Harness":6073,"Red":6074,"icker":6075,"pipe":6076,"tml":6077,"tree":6078,"wm":6079,"ension":6080,"Ġfar":6081,"Ġpatch":6082,"ĠSuggest":6083,"ĠCamera":6084,"Ġdeal":6085,"strap":6086,"ĠJul":6087,"00007":6088,"577":6089,"response":6090,"ManagerImpl":6091,"Ġgeneric":6092,"ĠQu":6093,"ĠApple":6094,"Ġexceptions":6095,"Ġallowed":6096,"Ġgroups":6097,"Hello":6098,"Ġkill":6099,"Ġtoolbar":6100,"Ġgives":6101,"OpenStrategy":6102,"ilingStrategy":6103,"packages":6104,"ScheduledThreadPoolExecutor":6105,"GenericMessagingTemplate":6106,"IteratingFilterChain":6107,"AbstractPollingEndpoint":6108,"##":6109,".$":6110,"CGROUPS":6111,"Route":6112,"Show":6113,"Win":6114,"bind":6115,"ls":6116,"ta":6117,"Ġsli":6118,"Ġbring":6119,"changes":6120,"Ġhang":6121,"ĠPack":6122,"ĠPID":6123,"ĠPOST":6124,"ĠNav":6125,"ĠNPE":6126,"503":6127,"Ġupon":6128,"())":6129,"createTableView":6130,"369":6131,"Ġsupports":6132,"TiUI":6133,"Ġdirectories":6134,"Form":6135,"Array":6136,"Artifact":6137,"Decor":6138,"Keyboard":6139,"Results":6140,"apelet":6141,"EntityManager":6142,"Ġdescribed":6143,"347":6144,"549":6145,"Pad":6146,"VGA":6147,"ZN":6148,"cent":6149,"parent":6150,"ermin":6151,"Ġtags":6152,"Ġfill":6153,"Ġfully":6154,"demo":6155,"Ġpages":6156,"Ġmention":6157,"iced":6158,"ember":6159,"lying":6160,"acts":6161,"riven":6162,"Ġ09":6163,"Ġ*/":6164,"perform":6165,"Ġevalu":6166,"Ġeups":6167,"ĠLO":6168,"ives":6169,"Ġimmedi":6170,"238":6171,"Ġoutside":6172,"ĠReading":6173,"astro":6174,"HandlerMethod":6175,"Updater":6176,"ĠDelete":6177,"Ġlooking":6178,"gistration":6179,"Ġprotobuf":6180,"Ġeasier":6181,"================================":6182,"Ġmoving":6183,"23751":6184,"duracloud":6185,"Ġflaky":6186,"Dist":6187,"DER":6188,"JO":6189,"Live":6190,"Lazy":6191,"Mo":6192,"Names":6193,"Width":6194,"iod":6195,"just":6196,"match":6197,"rb":6198,"Ġfire":6199,"Ġmount":6200,"Ġmoment":6201,"ĠTESB":6202,"ĠSH":6203,"ĠSL":6204,"adi":6205,"usion":6206,"ists":6207,"Ġconstruct":6208,"109":6209,"proceed":6210,"141":6211,"ĠName":6212,"180":6213,"Ġscale":6214,"Ġsequ":6215,"refresh":6216,"ĠRead":6217,"Address":6218,"Ġsuccessful":6219,"spi":6220,"Ġbackup":6221,"Ġopening":6222,"Ġrecovered":6223,"Ġcompiler":6224,"Ġready":6225,"where":6226,"TabGroup":6227,"JSON":6228,"Ġexpand":6229,"basicBuild":6230,"Ġimprovement":6231,"Ġterminal":6232,"Ġterminated":6233,"ĠProcessing":6234,"Ġblank":6235,"activity":6236,"Ġexplicitly":6237,"Flux":6238,"straint":6239,"Ġpeople":6240,"CLOVER":6241,"319":6242,"Bound":6243,"Hierarchy":6244,"Microsoft":6245,"NI":6246,"Spec":6247,"ULE":6248,"Zyg":6249,"can":6250,"hsc":6251,"jp":6252,"tap":6253,"head":6254,"rel":6255,"Ġfetcher":6256,"Ġfault":6257,"det":6258,"Ġmer":6259,"umes":6260,"ĠRoute":6261,"ainers":6262,"229":6263,"ĠLink":6264,"164":6265,"157":6266,"283":6267,"Ġlisting":6268,"ĠVis":6269,"oteInit":6270,"enced":6271,"Ġreported":6272,"Ġ874":6273,"DataBuilderImpl":6274,"Ġdistributed":6275,"ĠPlatform":6276,"Perform":6277,"ĠâĢľ":6278,"ĠInstead":6279,"Ġmigration":6280,"operation":6281,"JsonOutput":6282,"Background":6283,"ZygoteInit":6284,"Lettuce":6285,"SO":6286,"TE":6287,"\\.":6288,"xsd":6289,"Ġ??":6290,"Ġcloud":6291,"Ġreload":6292,"ĠIde":6293,"ĠTask":6294,"Ġgive":6295,"complete":6296,"Ġweek":6297,"ĠStep":6298,"139":6299,"553":6300,"Ġjson":6301,"Ġchart":6302,"Applications":6303,"560":6304,"ĠInitial":6305,"Ġ##":6306,"resolve":6307,"anning":6308,"Ġrot":6309,"ConnectionFactory":6310,"Ġportal":6311,"ATION":6312,"Services":6313,"Descriptor":6314,"Ġcounter":6315,"HTML":6316,"SubLocator":6317,"ĠPerformed":6318,"Ġmoved":6319,"TwitterSearch":6320,"IllegalArgumentException":6321,"Ġfolders":6322,"Ab":6323,"Feature":6324,"KS":6325,"bundle":6326,"black":6327,"clean":6328,"daf":6329,"Ġsays":6330,"ingest":6331,"stop":6332,"Ġreceiv":6333,"hold":6334,"ĠSpec":6335,"abilities":6336,"Storage":6337,"provider":6338,"progress":6339,"ubles":6340,"UILD":6341,"ĠLocation":6342,"Ġleader":6343,"230":6344,"342":6345,"acher":6346,"roles":6347,"setup":6348,"668":6349,"FactoryBean":6350,"parison":6351,"Ġmaybe":6352,"configuration":6353,"CommandContributionItem":6354,"Ġfixes":6355,"ootprint":6356,"Ġprim":6357,"containerizer":6358,"Ġvisit":6359,"Ġminimum":6360,"args":6361,"ĠSTS":6362,"Ġbroadcast":6363,"documentation":6364,"AopProxy":6365,"Ġcompatible":6366,"ĠAcceptance":6367,"Ġrepositories":6368,"dialogs":6369,"Ġindividual":6370,"SubLocatorRule":6371,"\").":6372,"Activ":6373,"Aptana":6374,"LS":6375,"Man":6376,"Over":6377,"Qserv":6378,"]]":6379,"bus":6380,"browser":6381,"tp":6382,"Ġbest":6383,"Ġinstru":6384,"Ġmetrics":6385,"Ġdynamic":6386,"export":6387,"ĠRest":6388,"Ġexpose":6389,"Ġleading":6390,"Char":6391,"0612":6392,"Ġchain":6393,"2752":6394,"464":6395,"Ġoutline":6396,"Ġsimp":6397,"Ġselecting":6398,"Ġwrapper":6399,"661":6400,"oving":6401,"webservice":6402,"handleRequest":6403,"ITS":6404,"Ġobs":6405,"iteria":6406,"17401":6407,"Ġdidn":6408,"Ġdatam":6409,"Validation":6410,"Directory":6411,"999999999999":6412,"ĠIDEA":6413,"Ġpromise":6414,"ITEID":6415,"Ġengine":6416,"TwitterSearchChannelAdapter":6417,",\\\"":6418,"212":6419,"407":6420,"Active":6421,"Batch":6422,"Folder":6423,"Single":6424,"here":6425,"hdfs":6426,"uff":6427,"input":6428,"Ġsem":6429,"ised":6430,"Ġmac":6431,"Ġmock":6432,"storage":6433,"Ġdalvikvm":6434,"ĠIssue":6435,"ĠSUI":6436,"ĠClean":6437,"ĠPo":6438,"Converter":6439,"Ġvs":6440,"ĠJDK":6441,"ĠBase":6442,"AbstractBundle":6443,"289":6444,"perture":6445,"ffort":6446,"ĠRegistry":6447,"201506":6448,"DefaultClassLoader":6449,"aken":6450,"ĠDelet":6451,"inceton":6452,"Commands":6453,"oolean":6454,"Annotation":6455,"Ġimprovements":6456,"selected":6457,"easure":6458,"mutex":6459,"TitaniumSDKUpdater":6460,"adius":6461,"438":6462,"Ġtell":6463,"Ġabstract":6464,"Ġsense":6465,"Ġcalendar":6466,"itive":6467,"Ġpom":6468,"omes":6469,"Ġhidden":6470,"ĠAccess":6471,"plan":6472,"Ġdeliver":6473,"Ġrabbit":6474,"upload":6475,"prise":6476,"11201513":6477,"=\"${":6478,"Ġnewly":6479,"233":6480,"Ġinstant":6481,"itional":6482,"pool":6483,"56447":6484,"ĠIndex":6485,"Ġplaces":6486,"ĠExamples":6487,"ĠĠĉĠĠĠ":6488,"795":6489,"Ġ500":6490,"dkDynamic":6491,"posix":6492,"Ġdeploying":6493,"sets":6494,"Ġtabs":6495,"TaskExecutor":6496,"Ġnaming":6497,"ĠContext":6498,"Ġminut":6499,"Ġclosing":6500,"Ġ201311201513":6501,"assignment":6502,"coded":6503,"Ġalgorithms":6504,"ĠLevel":6505,"21354":6506,"2962752":6507,"2272962752":6508,"cursor":6509,"ĠSELECT":6510,"CpEntityManager":6511,"Presentation":6512,"1740121354":6513,")]":6514,"/\"":6515,"At":6516,"Google":6517,"Global":6518,"LY":6519,"VI":6520,"gg":6521,"ks":6522,"sal":6523,"Ġamount":6524,"Ġsur":6525,"Ġslow":6526,"Ġcp":6527,"Ġcursor":6528,"ctor":6529,"ala":6530,"Ġtogether":6531,"Ġduplic":6532,"Ġthing":6533,"ĠCP":6534,"ortun":6535,"Ġexact":6536,"princeton":6537,"ĠMan":6538,"Ġloader":6539,"Sty":6540,"libs":6541,"Ġunknown":6542,"Serial":6543,"471":6544,"589":6545,"MessageBus":6546,"fox":6547,"egrate":6548,"Ġrequested":6549,"671":6550,"HttpServlet":6551,"Scroll":6552,"Ġimported":6553,"ĠBuilder":6554,"cedure":6555,"TION":6556,"connector":6557,"ĠSettings":6558,"Ġtries":6559,"ĠMySQL":6560,"Details":6561,"Ġattachment":6562,"Ġencountered":6563,"CommonReconcilingStrategy":6564,"ajor":6565,"dkDynamicAopProxy":6566,"MX":6567,"Sp":6568,"dated":6569,"now":6570,"ĠĠĠĠĠĠĊ":6571,"Ġbus":6572,"Ġannotation":6573,"Ġdr":6574,"ids":6575,"Ġhome":6576,"003":6577,"isting":6578,"ĠCall":6579,"andsc":6580,"Ġcome":6581,"Ġcomplex":6582,"ĠPart":6583,"Invoke":6584,"rompt":6585,"Ġasync":6586,"Statistics":6587,"runWorker":6588,"ĠFix":6589,"Problem":6590,"Ġrespon":6591,"391":6592,"290":6593,"472":6594,"Ġquite":6595,"Ġcalling":6596,"Ġarm":6597,"Ġdisappear":6598,"deployments":6599,"XPECT":6600,"ĠOnce":6601,"Ġmaintain":6602,"Ġadministr":6603,"Ġhierarchies":6604,"RuntimeException":6605,"Ġcopying":6606,"CATION":6607,"findClass":6608,"Ġbinary":6609,"Ġsplit":6610,"Interface":6611,"Ġscenario":6612,"Ġlicense":6613,"SIZE":6614,"andscape":6615,"Ass":6616,"Frame":6617,"JdkDynamicAopProxy":6618,"POR":6619,"Range":6620,"bash":6621,"cr":6622,"cloud":6623,"mult":6624,"yIndicator":6625,"zb":6626,"Ġsnapshot":6627,"role":6628,"Ġfig":6629,"allow":6630,"Ġinform":6631,"ula":6632,"Ġrename":6633,"agr":6634,"Ġforward":6635,"imal":6636,"rome":6637,"ĠWizard":6638,"Ġeffort":6639,"ĠEnable":6640,"198":6641,"Ġ40":6642,"ĠBoard":6643,"286":6644,"mouse":6645,"Ġlive":6646,"480":6647,"Ġoverview":6648,"Configure":6649,"netty":6650,"Ġrestore":6651,"Documentation":6652,"strings":6653,"Generated":6654,"Ġcompletely":6655,"ĠTypeParam":6656,"Ġboost":6657,"BusyIndicator":6658,"Creation":6659,"protobuf":6660,"Ġallocate":6661,"jboss":6662,"itecture":6663,"0000000000001":6664,".</":6665,"308":6666,"674":6667,"Ide":6668,"Note":6669,"SITEID":6670,"free":6671,"jackson":6672,"options":6673,"pared":6674,"orientation":6675,"atis":6676,"reviews":6677,"Ġincons":6678,"limin":6679,"avail":6680,"Ġoracle":6681,"ĠSprint":6682,"Ġhtml":6683,"ĠApache":6684,"Ġrx":6685,"Ġ['":6686,"Ġ[~":6687,"Ġexplorer":6688,"Ġjs":6689,"oks":6690,"ĠBrowser":6691,"()}}":6692,"Ġsets":6693,"leton":6694,"Ġoutbound":6695,"aching":6696,"ributor":6697,"Ġgenerating":6698,"Ġoverride":6699,"Ġdetailed":6700,"Ġtransfer":6701,"ameters":6702,"ĠAllow":6703,"Track":6704,"writ":6705,"filesystem":6706,"RunnableAdapter":6707,"OutOf":6708,"Ġcontroller":6709,"scribed":6710,"Ġ2459":6711,"UTF":6712,"Ġcapabilities":6713,"ariable":6714,"generate":6715,"ĠOSGi":6716,"417":6717,"CO":6718,"Db":6719,"Drop":6720,"Driven":6721,"Face":6722,"MY":6723,"Wait":6724,"after":6725,"ci":6726,"eve":6727,"folder":6728,"ked":6729,"ral":6730,"Ġknown":6731,"erve":6732,"ino":6733,"Ġsec":6734,"Ġsynchron":6735,"Ġsprint":6736,"Ġcent":6737,"Ġcop":6738,"Ġframe":6739,"Ġtouch":6740,"decl":6741,"ilation":6742,"pper":6743,"section":6744,"ĠAS":6745,"igator":6746,"orted":6747,"ĠRFC":6748,"Ġvolume":6749,"Ġear":6750,"ĠStatus":6751,"223":6752,"232":6753,"080":6754,"270":6755,"243":6756,"345":6757,"463":6758,"469":6759,"spag":6760,"Ġgeneration":6761,"Ġpermissions":6762,"Ġperhaps":6763,"Ġoverr":6764,"nodejs":6765,"Ġgoal":6766,"rollers":6767,"shiro":6768,"ĠErrors":6769,"ĠOpenStack":6770,"ĠKaraf":6771,"Login":6772,"Ġpackaged":6773,"annotation":6774,"Point":6775,"Ġtriggered":6776,"ĠLaunching":6777,"Ġpreviously":6778,"Level":6779,"workspaces":6780,"Offers":6781,"Ġcommunic":6782,"Ġcertificate":6783,"ĠIdeally":6784,"Ġbroadcasted":6785,"Ġinstructions":6786,"'});":6787,"Buffer":6788,"CAL":6789,"Join":6790,"Mess":6791,"Option":6792,"Volume":6793,"]</":6794,"]\">":6795,"eoc":6796,"fokke":6797,"ium":6798,"max":6799,"sive":6800,"Ġ::":6801,"Ġaway":6802,"avor":6803,"delet":6804,"Ġrecomm":6805,"Ġconcept":6806,"ĠCA":6807,"Ġnoticed":6808,"acing":6809,"Ġexec":6810,"1139":6811,"Ġapplied":6812,"1352":6813,"Register":6814,"Ġreset":6815,"Ġyes":6816,"Ġundeploy":6817,"Ġactions":6818,"Authentic":6819,"NotFound":6820,"Ġfilters":6821,"ĠMobileWeb":6822,"ĠPlugin":6823,"tomcat":6824,"RedisQueue":6825,"Ġfollows":6826,"ĠTypeError":6827,"mitted":6828,"Connector":6829,"9393":6830,"fokkezb":6831,"320":6832,"744":6833,"CK":6834,"Clo":6835,"DS":6836,"Find":6837,"UUID":6838,"cre":6839,"ha":6840,"mem":6841,"memory":6842,"ulation":6843,"ĠRet":6844,"acon":6845,"riend":6846,"comment":6847,"ĠEC":6848,"509":6849,"ĠJavascript":6850,"ĠTiUI":6851,"397":6852,"398":6853,"Ġunexpected":6854,"ystore":6855,"MessageDriven":6856,"DefaultLifecycle":6857,"single":6858,"Ġlaunches":6859,"896":6860,"Ġbecomes":6861,"ĠScreenshot":6862,"2009":6863,"Ġzookeeper":6864,"etric":6865,"Ġmobileweb":6866,"Callable":6867,"preview":6868,"scribe":6869,"Ġcausing":6870,"MessagingException":6871,"compile":6872,"AopUtils":6873,"Ġintroduced":6874,"Ġbeginning":6875,"ĠFinished":6876,"Fire":6877,"Render":6878,"Switch":6879,"TEST":6880,"eger":6881,"jmx":6882,"pe":6883,"pom":6884,"Ġtree":6885,"oring":6886,"ales":6887,"Ġbig":6888,"Ġbrow":6889,"stmt":6890,"chunk":6891,"ĠSU":6892,"Ġ264":6893,"ĠCamel":6894,"Ġrules":6895,"ĠPR":6896,"serial":6897,"118":6898,"ĠFTP":6899,"extender":6900,"convert":6901,"Ġresolved":6902,"175":6903,"555":6904,"=\"#":6905,"159":6906,"275":6907,"invokeJoin":6908,"address":6909,"nost":6910,"Ġparallel":6911,"Ġgenerates":6912,"Ġdifference":6913,"Ġtransl":6914,"Ġreflect":6915,"Allocator":6916,"colors":6917,"Ġzk":6918,"Ġinitialization":6919,"disk":6920,"Ġblocks":6921,"Operations":6922,"Ġchannels":6923,"exceptions":6924,"ĠLocal":6925,"DirectChannel":6926,"Ġidea":6927,"ĠDEBUG":6928,"authenticate":6929,"Ġimmediately":6930,"atisf":6931,"DefaultLifecycleProcessor":6932,"invokeJoinpoint":6933,"*:":6934,"ADM":6935,"Bind":6936,"Cannot":6937,"Link":6938,"Number":6939,"Publish":6940,"Qu":6941,"VN":6942,"cwm":6943,"dn":6944,"fetch":6945,"ik":6946,"kg":6947,"lambda":6948,"scription":6949,"Ġtaken":6950,"enger":6951,"def":6952,"Ġnone":6953,"omcat":6954,"andra":6955,"Ġgithub":6956,"Invalid":6957,"ĠMulti":6958,"105":6959,"1145":6960,"ĠĠĠĠĠĠĠĠĠĠĠĠĠĠĠĠĠĠ":6961,"045":6962,"193":6963,"194":6964,"291":6965,"Ġlogger":6966,"Ġunn":6967,"Running":6968,"TiMess":6969,"Ġresulting":6970,"nsure":6971,"740":6972,"Ġparts":6973,"shared":6974,"doFilterInternal":6975,"record":6976,"Design":6977,"MESOS":6978,"Ġbugs":6979,"ĠStarted":6980,"WARNING":6981,"Ġhostname":6982,"Ġrestarting":6983,"Ġfollowed":6984,"Ġestimate":6985,"ĠDebugger":6986,"Ġprivate":6987,"Enabled":6988,"Changeset":6989,"32238":6990,"Exporter":6991,"Ġrecognized":6992,"specific":6993,"Ġreplaced":6994,"Ġ-------------------------------------------------------------":6995,"changesets":6996,"ĠDeleting":6997,"]\">[":6998,"DirectChannelMetrics":6999,"TiMessenger":7000,"(['":7001,"AA":7002,"DR":7003,"FS":7004,"Migr":7005,"Ro":7006,"TO":7007,"UE":7008,"gers":7009,"ma":7010,"}\"":7011,"Ġastrometry":7012,"reemarker":7013,"amed":7014,"ptr":7015,"vertical":7016,"Ġ{}":7017,"assandra":7018,"119":7019,"Reg":7020,"iring":7021,"167":7022,"INF":7023,"swer":7024,"BuildJob":7025,"2011":7026,"othing":7027,"Ġedge":7028,"Ġimplementing":7029,"Ġdetection":7030,"parsing":7031,"Ġintermitt":7032,"Ġbecome":7033,"recover":7034,"Ġxrootd":7035,"Ġpopulate":7036,"baseadaptor":7037,"Subject":7038,"SELECT":7039,"Ġconfusing":7040,"Ġ2458":7041,"SlaveRecoveryTest":7042,"Ġassigned":7043,"Ġextensions":7044,"design":7045,"Startup":7046,"standalone":7047,"ĠListView":7048,"Ġmarked":7049,"help":7050,"Ġnormal":7051,"ÂłĠÂłĠ":7052,"anization":7053,"Remote":7054,"Ġdatamart":7055,"Styled":7056,"agrant":7057,"301":7058,"357":7059,"659":7060,"923":7061,">/":7062,"First":7063,"LU":7064,"Su":7065,"\\/":7066,"ds":7067,"sam":7068,"xr":7069,"inner":7070,"Ġcenter":7071,"itical":7072,"allocation":7073,"Ġwidget":7074,"unes":7075,"livery":7076,"Ġreader":7077,"ĠTizen":7078,"Ġthird":7079,"agination":7080,"ĠAV":7081,"ĠCent":7082,"ĠCustom":7083,"vileg":7084,"Ġdead":7085,"ourses":7086,"romium":7087,"frameworks":7088,"Ġimpro":7089,"ĠJVM":7090,"AbstractSh":7091,"154":7092,"ĠGroup":7093,"testdata":7094,"999":7095,"trl":7096,"641":7097,"encing":7098,"username":7099,"ategories":7100,"pletion":7101,"ously":7102,"Ġmodified":7103,"Ġsometimes":7104,"SimpleMessage":7105,"ĠWorkspace":7106,"Ġhighlight":7107,"alibration":7108,"ength":7109,"ĠAssign":7110,"PreferencePage":7111,"AutoBuildJob":7112,"CAG":7113,"eolocation":7114,"reconciler":7115,"%',":7116,"AML":7117,"Mask":7118,"Pri":7119,"Pop":7120,"Persist":7121,"Picker":7122,"Some":7123,"dl":7124,"lap":7125,"pop":7126,"tat":7127,"ucket":7128,"Ġsom":7129,"Ġsys":7130,"Ġsudo":7131,"Ġmajor":7132,"Ġolder":7133,"Ġoften":7134,"Ġdef":7135,"ĠPO":7136,"Ġaltern":7137,"assets":7138,"114":7139,"undles":7140,"Receiver":7141,"Ġcontribute":7142,"165":7143,"440":7144,"242":7145,"293":7146,"299":7147,"475":7148,"ightly":7149,"ĠReference":7150,"ĠRelease":7151,"Ġsuc":7152,"spel":7153,"ĠVOT":7154,"Ġperf":7155,"hemas":7156,"LIB":7157,"executeCommand":7158,"Reporter":7159,"Ġwants":7160,"680":7161,"ĠAuthor":7162,"Ġstatement":7163,"++)":7164,"Ġsections":7165,"Ġthreads":7166,"ĠDesign":7167,"Ġagents":7168,"timestamp":7169,"Ġjars":7170,"Agent":7171,"ĠTimestamp":7172,"Bounds":7173,"NotFoundException":7174,"ĠVOTING":7175,"312":7176,"722":7177,"Dependency":7178,"FTP":7179,"Hub":7180,"Language":7181,"Mode":7182,"Space":7183,"Title":7184,"blackberry":7185,"css":7186,"category":7187,"dm":7188,"gu":7189,"hn":7190,"hip":7191,"pol":7192,"sample":7193,"sync":7194,"wsdl":7195,"atrix":7196,"Ġcatch":7197,"ittle":7198,"alloc":7199,"define":7200,"arwin":7201,"standard":7202,"ĠSI":7203,"Ġhide":7204,"implement":7205,"Ġsto":7206,"Ġrandom":7207,"Execute":7208,"fail":7209,"libart":7210,"ĠOct":7211,"ĠOption":7212,"Chunk":7213,"ĠBoot":7214,"AbstractTreeViewer":7215,"EventDispatch":7216,"Ġworked":7217,"ĠGuide":7218,"Ġauthor":7219,"58462":7220,"574":7221,"WorkbenchWindow":7222,"ĠProvide":7223,"Ġhover":7224,"Ġ>>":7225,"TitaniumUpdate":7226,"xygen":7227,"ĠVerify":7228,"Classpath":7229,"Ġspecification":7230,"Invocable":7231,"Ġimplementations":7232,"Ġsubmit":7233,"Ġsubmission":7234,"Ġtransaction":7235,"Ġclicked":7236,"Parse":7237,"visor":7238,"Ġinvest":7239,"Ġgraph":7240,"Ġindexing":7241,"Logging":7242,"transform":7243,"ExecutionTemplate":7244,"Looper":7245,"Ġregion":7246,"FILL":7247,"Ġreleased":7248,"Ġestim":7249,"Validator":7250,"MesosContainerizer":7251,"Ġignored":7252,"________":7253,"attempt":7254,"aaaaaaaa":7255,"ĠInterface":7256,"ĠSOAP":7257,"Executable":7258,"eocoder":7259,"aconda":7260,"InvocableHandlerMethod":7261,"218":7262,"310":7263,">{":7264,"Body":7265,"Failed":7266,"MI":7267,"Sense":7268,"jr":7269,"option":7270,"rait":7271,"spect":7272,"try":7273,"xrootd":7274,"erica":7275,"Ġcaused":7276,"ited":7277,"ingleton":7278,"arily":7279,"unc":7280,"live":7281,"termin":7282,"Ġanalytics":7283,"ĠTemplate":7284,"ĠTomcat":7285,"ĠSingle":7286,"ident":7287,"Ġ1000":7288,"Ġprofiles":7289,"qua":7290,"Ġnotifications":7291,"ĠĠĠĠĠĠĠĠĠĠĠĠĠĠĠĠĠĠĠĠĠĠĠĠĠĠĠ":7292,"conf":7293,"222":7294,"ĠJMX":7295,"Ġjoin":7296,"260":7297,"271":7298,"Ġunbound":7299,"ipart":7300,"Unable":7301,"376":7302,"540":7303,"ModuleTest":7304,"Ġ60":7305,"heduling":7306,"Ġmanage":7307,"Ġindicating":7308,"download":7309,"Ġlabels":7310,"LocalClass":7311,"ĠTrace":7312,"pecially":7313,"blueprint":7314,"manifest":7315,"AVA":7316,"202":7317,"601":7318,"638":7319,"Audit":7320,"Meta":7321,"Url":7322,"Verify":7323,"bers":7324,"copy":7325,"jvm":7326,"template":7327,"tgz":7328,"Ġ59":7329,"iness":7330,"ones":7331,"ats":7332,"itel":7333,"Ġbody":7334,"Ġbulk":7335,"Ġinvoke":7336,"Ġredirect":7337,"Ġforce":7338,"icense":7339,"ĠAb":7340,"ĠCH":7341,"andid":7342,"Ġ\"-":7343,"Ġran":7344,"Ġ'-":7345,"Exposure":7346,"Ġext":7347,"ĠMore":7348,"ĠMetadata":7349,"forge":7350,"Ġev":7351,"1410":7352,"eregister":7353,"ĠOther":7354,"soli":7355,"264":7356,"269":7357,"44005":7358,"284":7359,"ĠiPad":7360,"366":7361,"591":7362,"535":7363,"Ġfunctional":7364,"Ġprocessed":7365,"Ġhold":7366,"Ġlists":7367,"ĠAndroidRuntime":7368,"884":7369,"Ġperiod":7370,"ONE":7371,"FilterChainProxy":7372,"webkit":7373,"idea":7374,"supported":7375,"velope":7376,"kia":7377,"actoring":7378,"FrameworkServlet":7379,"Notes":7380,"LogMessage":7381,"TextField":7382,"Ġschedule":7383,"discus":7384,"mapv":7385,"cae":7386,"moodlelib":7387,"directory":7388,"Coadd":7389,"iroFilter":7390,"BuildPathManager":7391,"iagnost":7392,"Ġlower":7393,"Ġ???":7394,"Ġfigure":7395,"Ġbrowsers":7396,"StyledText":7397,"AbstractShiroFilter":7398,"EventDispatchThread":7399,"(_":7400,"324":7401,"857":7402,">:":7403,"Cam":7404,"IF":7405,"Length":7406,"UP":7407,"VE":7408,"bean":7409,"cen":7410,"duration":7411,"pdf":7412,"ract":7413,"rabbit":7414,"token":7415,"}<":7416,"ona":7417,"Ġsit":7418,"enrol":7419,"devel":7420,"Ġbamboo":7421,"lict":7422,"Ġmerge":7423,"chromium":7424,"ĠTAC":7425,"example":7426,"icult":7427,"Ġ\"\"":7428,"Ġdeleg":7429,"qual":7430,"ĠFound":7431,"extension":7432,"Ġaren":7433,"55423":7434,"ĠJMS":7435,"Ġjdbc":7436,"Ġjavascript":7437,"Ġadds":7438,"2499":7439,"254":7440,"Ġworkaround":7441,"38895":7442,"ProcessBase":7443,"Ġdocumented":7444,"678":7445,"ETA":7446,"Ġcompare":7447,"Ġaccessible":7448,"Enh":7449,"Ġindicate":7450,"Ġformatting":7451,"Ġprompted":7452,"Selected":7453,"ĠSimple":7454,"wards":7455,"Ġproposed":7456,"Ġ(/)":7457,"Ġrefactoring":7458,"atermark":7459,"ĠRemoving":7460,"KrollRuntime":7461,"Ġartifacts":7462,"Ġalias":7463,"msgSendSuper":7464,"Ġdefining":7465,"55850":7466,"Ġtruncate":7467,"CachedChain":7468,"Ġsequence":7469,"Ġminutes":7470,"Roaming":7471,"Ġsomew":7472,"cenqua":7473,".'":7474,"330":7475,"Evalu":7476,"Sign":7477,"correct":7478,"dent":7479,"guide":7480,"hr":7481,"hidden":7482,"media":7483,"zz":7484,"}/":7485,"Ġeclipse":7486,"Ġingest":7487,"ero":7488,"cture":7489,"Ġinline":7490,"lieve":7491,"lokia":7492,"Ġnear":7493,"cha":7494,"Ġthus":7495,"ĠAbstract":7496,"plain":7497,"Ġ\"<":7498,"ĠRES":7499,"Ġcombin":7500,"Ġlittle":7501,"rib":7502,"ĠPM":7503,"ĠPass":7504,"proc":7505,"come":7506,"comerica":7507,"ĠLib":7508,"Ġleak":7509,"ĠOb":7510,"2697":7511,"ExceptionTo":7512,"ĠInv":7513,"TiDrawableReference":7514,"Research":7515,"ront":7516,"handled":7517,"fully":7518,"Place":7519,"Ġtwice":7520,"BundleManager":7521,"ĠAttempt":7522,"Transport":7523,"SQLException":7524,"StandardContext":7525,"Ġbreaks":7526,"ĠConfigure":7527,"oftware":7528,"ĠEnvironment":7529,"ĠConfigurations":7530,"Ġ5471":7531,"ABLE":7532,"Ġimplicit":7533,"workspcae":7534,"controller":7535,"Ġpossibly":7536,"45613":7537,"ĠOverview":7538,"Ġerrno":7539,"HystrixCommand":7540,"Ġdifficult":7541,"ĠNavigate":7542,"214":7543,"334":7544,"DH":7545,"Merge":7546,"[\"":7547,"fill":7548,"ike":7549,"karaf":7550,"warn":7551,"rem":7552,"ropped":7553,"analytics":7554,"Ġpol":7555,"Ġinher":7556,"lix":7557,"step":7558,"ĠIter":7559,"ĠTap":7560,"examples":7561,"uming":7562,"Ġconvent":7563,"ollowing":7564,"oding":7565,"quire":7566,"Ġguid":7567,"Ġ[----------":7568,"jected":7569,"ĠDI":7570,"uge":7571,"ĠFlow":7572,"corepersistence":7573,"ĠNU":7574,"Dev":7575,"ĠTiStudio":7576,"2701":7577,"258":7578,"488":7579,"Ġsoon":7580,"DefaultList":7581,"mong":7582,"Ġanymore":7583,"ServiceImpl":7584,"locallib":7585,"Ġpositions":7586,"network":7587,"Ġdepending":7588,"âĢĶ":7589,"Ġimporting":7590,"ublished":7591,"Ġsends":7592,"newInstance":7593,"Ġlocalhost":7594,"Ġprotocol":7595,"StandardHost":7596,"Ġregular":7597,"Ġ4737":7598,"Ġhelpful":7599,"Ġreturning":7600,"Offer":7601,"Coyote":7602,"Ġreleases":7603,"instance":7604,"Iterator":7605,"ĠTableView":7606,"Intercepting":7607,"EXT":7608,"Ġduradmin":7609,"issues":7610,"Ġguess":7611,"Ġutility":7612,"notifyListeners":7613,"47787":7614,"signed":7615,"ĠVisual":7616,"MessagingExceptionExecutionInterceptor":7617,"itelist":7618,"ExceptionToMessagingExceptionExecutionInterceptor":7619,"Ġ[----------]":7620,"522":7621,"Darwin":7622,"More":7623,"Tim":7624,"bot":7625,"credentials":7626,"gtest":7627,"hh":7628,"mcat":7629,"sk":7630,"session":7631,"tuple":7632,"tdq":7633,"wo":7634,"Ġ;":7635,"Ġut":7636,"ĠtESB":7637,"alize":7638,"Ġtomcat":7639,"Ġblackberry":7640,"Ġbtn":7641,"Ġpipe":7642,"amq":7643,"Ġanimation":7644,"ota":7645,"Ġhistory":7646,"001":7647,"Ġforum":7648,"abili":7649,"Ġ(!":7650,"Ġbelieve":7651,"ĠCMake":7652,"Ġdemon":7653,"ĠPDF":7654,"ĠFeb":7655,"ĠFunction":7656,"springsource":7657,"Ġupgrad":7658,"Def":7659,"265":7660,"2604":7661,"442":7662,"444":7663,"Ġ2011":7664,"ĠGlobal":7665,"567":7666,"Ġencry":7667,"203":7668,"ChainLifecycle":7669,"Ġseeing":7670,"Ġsubsequ":7671,"Ġtransition":7672,"HttpConnection":7673,"nik":7674,"coyote":7675,"connected":7676,"iddle":7677,"picker":7678,"Ġhardware":7679,"HTTPClient":7680,"DelegateAsyncProcessor":7681,"ĠRegistering":7682,"Ġaffected":7683,"Ġarchive":7684,"3142697":7685,"Ġgradle":7686,"55618":7687,"RedisQueueMessageDriven":7688,"ADME":7689,"CoyoteAdapter":7690,"InterceptingChainLifecycle":7691,"DarwinX":7692,"3142697795":7693,"RedisQueueMessageDrivenEndpoint":7694,"InterceptingChainLifecycleWrapper":7695,"510":7696,"825":7697,"Based":7698,"DAT":7699,"Fetch":7700,"JDBC":7701,"OUT":7702,"Radius":7703,"]\"":7704,"guid":7705,"mes":7706,"mar":7707,"nical":7708,"sy":7709,"ted":7710,"insert":7711,"registration":7712,"Ġcard":7713,"array":7714,"Ġben":7715,"Ġbinding":7716,"Ġpast":7717,"assert":7718,"ĠTe":7719,"estroy":7720,"ĠActive":7721,"ĠAlert":7722,"Ġlandscape":7723,"Convert":7724,"ĠField":7725,"ĠFirst":7726,"142":7727,"220":7728,"225":7729,"191":7730,"069":7731,"267":7732,"2665":7733,"pha":7734,"ĠUT":7735,"ĠGA":7736,"Ġauthorization":7737,"rowen":7738,"365":7739,"483":7740,"TiApp":7741,"butler":7742,"352":7743,"ARG":7744,"Ġselector":7745,"Ġdocuments":7746,"Ġsubsystem":7747,"partition":7748,"Ġpassing":7749,"dispatchEvent":7750,"Ġinvoking":7751,"ĠSchema":7752,"Prepared":7753,"Generate":7754,"ingMessageProcessor":7755,"compare":7756,"ĠTIMOB":7757,"Ġdeclared":7758,"ĠValid":7759,"monitoring":7760,"WSDL":7761,"semble":7762,"Ġprovisioning":7763,"ĠDetecting":7764,"ĠTiUIImageView":7765,"Ġsucceed":7766,"Ġdemonstr":7767,"1000":7768,"GL":7769,"NOT":7770,"Please":7771,"Sup":7772,"card":7773,"fold":7774,"mvc":7775,"solut":7776,"sandbox":7777,"vailable":7778,"wait":7779,"Ġacs":7780,"rea":7781,"Ġsaving":7782,"Ġblack":7783,"Ġmo":7784,"Ġanno":7785,"Ġisolation":7786,"ĠCurrent":7787,"------":7788,"ĠĠĠĠĠĊ":7789,"serve":7790,"obi":7791,"ĠĠĠĠĠĠĠĠĠĠĠĠĠĠĠĠĠĠĠĠĠĠĠĠĠĠĠĠĠ":7792,"228":7793,"Ġwhitelist":7794,"189":7795,"Ġscheme":7796,"1677":7797,"okup":7798,"445":7799,"MethodInvoker":7800,"252":7801,"341":7802,"ĠProperties":7803,"pointing":7804,"Ġretcode":7805,"ĠlistView":7806,"ĠReplic":7807,"Ġcollect":7808,"Theme":7809,"userid":7810,"Ġrequirement":7811,"groups":7812,"Ġstreaming":7813,"Ġdisplaying":7814,"Upload":7815,"DelegatingPlugin":7816,"Authorization":7817,"Ġcoordin":7818,"Ġdbconnection":7819,"Ġinvestigate":7820,"submission":7821,"Ġmatches":7822,"Ġinitialized":7823,"Ġtickets":7824,"StandardWrapper":7825,"StandardEngine":7826,"ĠAssist":7827,"Ġexited":7828,"types":7829,"Ġdiscovered":7830,"decam":7831,"Serializer":7832,"Ġinconsistent":7833,"spagobi":7834,"ClasspathManager":7835,"Placeholder":7836,"StandardContextValve":7837,"solute":7838,"StandardWrapperValve":7839,",'":7840,"425":7841,"=<":7842,"AST":7843,"Bl":7844,"Camel":7845,"Camera":7846,"Dur":7847,"Family":7848,"Mis":7849,"Measure":7850,"TL":7851,"])":7852,"drop":7853,"faster":7854,"features":7855,"fortun":7856,"menus":7857,"paces":7858,"publish":7859,"temp":7860,"theme":7861,"header":7862,"Ġsuper":7863,"ĠĠĠĠĉ":7864,"Ġcut":7865,"Ġcourses":7866,"itch":7867,"arger":7868,"Ġpic":7869,"loop":7870,"Ġne":7871,"Ġrebuild":7872,"exe":7873,"Ġforced":7874,"iment":7875,"istency":7876,"iggers":7877,"iff":7878,"Ġ[--":7879,"ĠMod":7880,"Ġ32":7881,"loworld":7882,"Define":7883,"177":7884,"Ġleg":7885,"ĠOper":7886,"160":7887,"=\"\"":7888,"Ġ404":7889,"oked":7890,"AbstractHttp":7891,"441":7892,"362":7893,"484":7894,"DEF":7895,"ĠConsole":7896,"Ġsomeone":7897,"498":7898,"Classes":7899,"executeWith":7900,"ĠControl":7901,"ClientImpl":7902,"APE":7903,"One":7904,"omething":7905,"Ġrelative":7906,"Encry":7907,"Prepare":7908,"collection":7909,"IndexOutOf":7910,"Ġobtain":7911,"ĠJobs":7912,"ĠWhich":7913,"listener":7914,"Producer":7915,"BeanDefinitionReader":7916,"Ġidentify":7917,"Ġexpressions":7918,"Ġperson":7919,"ĠCopying":7920,"Ġremains":7921,"Ġremaining":7922,"Ġaggregate":7923,"Ġiterator":7924,"CCESS":7925,"Before":7926,"ĠKitchenSink":7927,"ĠGetting":7928,"Ġsnippet":7929,"ĠPackaging":7930,"pomona":7931,"Ġunnecessary":7932,"BoundsException":7933,"StandardHostValve":7934,"IndexOutOfBoundsException":7935,"/-":7936,"309":7937,"BI":7938,"Foo":7939,"Jan":7940,"Light":7941,"PL":7942,"Sql":7943,"cis":7944,"ev":7945,"kill":7946,"mode":7947,"mapping":7948,"rt":7949,"rime":7950,"svn":7951,"Ġ../":7952,"aring":7953,"Ġpublished":7954,"Ġnor":7955,"static":7956,"Ġdq":7957,"Ġdispatch":7958,"Ġreduce":7959,"Ġrevocable":7960,"ĠSave":7961,"ĠSync":7962,"ĠShow":7963,"Ġ(\"":7964,"Ġproceed":7965,"Ġcomparison":7966,"Ġlarger":7967,"tty":7968,"Instrument":7969,"ĠDown":7970,"Ġ37":7971,"obs":7972,"145":7973,"ĠEXPECT":7974,"Ġwhite":7975,"grading":7976,"094":7977,"2438":7978,"served":7979,"ĠGC":7980,"479":7981,"RunLoop":7982,"track":7983,"Ġenum":7984,"ĠĠĉĠĠ":7985,"HandlerProxy":7986,"ĠVariable":7987,"843":7988,"Ġlibsystem":7989,"ContainerListener":7990,"CreateBuilderImpl":7991,"ErrorReport":7992,"pleted":7993,"ConfigurationBuilder":7994,"FrameworkMethod":7995,"WebView":7996,"apsed":7997,"Notify":7998,"aits":7999,"filters":8000,"Ġinvolve":8001,"ĠScroll":8002,"Supported":8003,"ĠChrome":8004,"RepositoryFactory":8005,"Queued":8006,"allery":8007,"Ġcovers":8008,"john":8009,"URLConnection":8010,"raft":8011,"Reconcile":8012,"EditPart":8013,"success":8014,"MessageProcessorExecutionTemplate":8015,"Ġsaying":8016,"Ġaliases":8017,"issue":8018,"Ġexplain":8019,"HyperSup":8020,"Ġoversubscribed":8021,"Extract":8022,"Decorator":8023,"freezer":8024,"available":8025,"Ġsubsequent":8026,"StandardEngineValve":8027,"fasterxml":8028,"ErrorReportValve":8029,"HyperSuprime":8030,"!!":8031,"703":8032,"Bit":8033,"COS":8034,"False":8035,"Memory":8036,"Python":8037,"Psf":8038,"PATH":8039,"Rout":8040,"Ranges":8041,"Rename":8042,"Singleton":8043,"ULT":8044,"fix":8045,"gpr":8046,"hystrix":8047,"jms":8048,"pw":8049,"prompt":8050,"vagrant":8051,"yles":8052,"Ġaperture":8053,"Ġccd":8054,"Ġcredential":8055,"ters":8056,"Ġannot":8057,"Ġder":8058,"Ġdisp":8059,"Ġdatab":8060,"ecause":8061,"ĠSample":8062,"atever":8063,"Ġproduce":8064,"Ġconstructor":8065,"ĠClose":8066,"Ġgemfire":8067,"rip":8068,"Example":8069,"ĠDec":8070,"ĠDem":8071,"ĠMonitor":8072,"coming":8073,"1334":8074,"ĠEE":8075,"Ġlength":8076,"ĠOf":8077,"1697":8078,"0806":8079,"295":8080,"Ġunless":8081,"Ġiphone":8082,"createTab":8083,"473":8084,"TestClass":8085,"Ġplans":8086,"Ġlif":8087,"loaded":8088,"doDispatch":8089,"487":8090,"205":8091,"374":8092,"Ġparam":8093,"Player":8094,"webwork":8095,"openapi":8096,"SCAPE":8097,"Trigger":8098,"\"></":8099,"Help":8100,"Args":8101,"column":8102,"Setup":8103,"SendEvent":8104,"201409":8105,"Ġadapter":8106,"NSApplication":8107,"Ġ4736":8108,"ĠLogin":8109,"compat":8110,"Ġapprox":8111,"databind":8112,"Ġattempts":8113,"Ġnavigate":8114,"RestTemplate":8115,"Disk":8116,"Ġphase":8117,"straints":8118,"Ġcompatibility":8119,"renderer":8120,"Ġ-----":8121,"Ġstandalone":8122,"Ġcorrection":8123,"Ġmentioned":8124,"alaxy":8125,"PreparedStatement":8126,")\"":8127,"217":8128,"429":8129,"Area":8130,"CR":8131,"JFace":8132,"Last":8133,"Optim":8134,"Press":8135,"Pagination":8136,"Summary":8137,"VENT":8138,"clo":8139,"cxx":8140,"day":8141,"gmock":8142,"hase":8143,"iation":8144,"qs":8145,"tcp":8146,"yy":8147,"Ġsatisf":8148,"Ġcycle":8149,"Ġcandid":8150,"lier":8151,"javax":8152,"ĠSamples":8153,"Ġprocedure":8154,"Ġ\"#":8155,"Ġlayer":8156,"artifact":8157,"ĠMV":8158,"endor":8159,"Review":8160,"grails":8161,"ĠLI":8162,"AbstractTwitter":8163,"ĠHome":8164,"Ġ|--":8165,"39461":8166,"MethodFilter":8167,"Ġworkflow":8168,"ebula":8169,"ĠInverse":8170,"traits":8171,"460":8172,"Usage":8173,"20121":8174,"378":8175,"legacy":8176,"ARCH":8177,"Ġeventually":8178,"ServiceRequest":8179,"Ġpermission":8180,"Ġlocated":8181,"afari":8182,"Plain":8183,"Ġassume":8184,"Ġdepends":8185,"âĢĿ":8186,"Ġpolicy":8187,"Autom":8188,"ĠImprove":8189,"validate":8190,"validator":8191,"Ġcouple":8192,"Projects":8193,"interface":8194,"callback":8195,"Logger":8196,"SetDataBuilderImpl":8197,"Ġsecondary":8198,"Transformer":8199,"Ġautomated":8200,"Ġadvanced":8201,"ĠPlan":8202,"Ġconflict":8203,"join":8204,"ÂłÂł":8205,"Ġsignal":8206,"registered":8207,"handleMessageInternal":8208,"Ġfinished":8209,"Record":8210,"ĠAdministr":8211,"Ġextract":8212,"FilesystemIsolatorTest":8213,"Ġignore":8214,"limited":8215,"KrollProxy":8216,"MBeanExporter":8217,"34609":8218,"cluding":8219,"ValidationInterceptor":8220,"ĠCPU":8221,"nikov":8222,"DelegatingPluginFilter":8223,"Ġdatabases":8224,"AbstractTwitterInboundChannelAdapter":8225,"326":8226,"411":8227,"518":8228,"=[":8229,"CXF":8230,"CESS":8231,"Fault":8232,"Freemarker":8233,"NU":8234,"None":8235,"Tunes":8236,"focus":8237,"ker":8238,"kdir":8239,"metrics":8240,"names":8241,"pattern":8242,"ris":8243,"sa":8244,"sbin":8245,"xn":8246,"rew":8247,"replace":8248,"leep":8249,"Ġfs":8250,"Ġwatch":8251,"Ġpair":8252,"Ġpoll":8253,"Ġdraw":8254,"ĠSwitch":8255,"abi":8256,"Ġ256":8257,"Ġpropose":8258,"Ġruble":8259,"Ġexposed":8260,"obj":8261,"getValue":8262,"perf":8263,"bose":8264,"1457":8265,"ĠNPM":8266,"162":8267,"2640":8268,"399":8269,"280":8270,"282":8271,"247":8272,"Ġunused":8273,"360":8274,"logy":8275,"4679":8276,"598":8277,"883":8278,"Upd":8279,"Ġ80":8280,"Ġshall":8281,"Ġhierarchy":8282,"Ġzero":8283,"Ġterm":8284,"ĠDataSense":8285,"consumer":8286,"functions":8287,"egg":8288,"ĠPreview":8289,"50043":8290,"findLocalClass":8291,"201204":8292,"Recipe":8293,"Ġorigin":8294,"ĠFirefox":8295,"Ġespecially":8296,"ancer":8297,"Namespace":8298,"Ġsimplify":8299,"salnikov":8300,"Ġcpu":8301,"Ġduplicated":8302,"Ġcopied":8303,"Ġimproved":8304,"ĠAuthorizing":8305,"iagnostic":8306,"'},":8307,".]":8308,"244":8309,"DU":8310,"Del":8311,"Domain":8312,"Duplicate":8313,"II":8314,"JNI":8315,"NPM":8316,"aid":8317,"blog":8318,"cover":8319,"calendar":8320,"center":8321,"gc":8322,"havi":8323,"jam":8324,"pid":8325,"sheet":8326,"war":8327,"Ġsymbol":8328,"Ġcat":8329,"Ġcalibration":8330,"ingFilter":8331,"ars":8332,"entVolume":8333,"urns":8334,"hoose":8335,"olumes":8336,"oser":8337,"ĠPress":8338,"148":8339,"ively":8340,"Developer":8341,"readsheet":8342,"Ġleave":8343,"Ġbyte":8344,"ĠJAR":8345,"Views":8346,"Ġbutler":8347,"ĠBundle":8348,"ĠBPM":8349,"390":8350,"274":8351,"Exceptions":8352,"ĠGeocoder":8353,"overflow":8354,"075":8355,"outbound":8356,"020":8357,"Ġenrol":8358,"Ġencoding":8359,"WorkbenchKeyboard":8360,"login":8361,"466":8362,"refactoring":8363,"astrom":8364,"ĠProblems":8365,"ĠWeek":8366,"Ġtherefore":8367,"possible":8368,"Ġ${":8369,"schedule":8370,"Ġlocating":8371,"Ġlocations":8372,"ContextModule":8373,"ConnectionUtils":8374,"Scope":8375,"Ġpointer":8376,"Ġmembers":8377,"ometry":8378,"Ġkernel":8379,"ĠBuilding":8380,"ĠAnalysis":8381,"transaction":8382,"Indexing":8383,"ĠLoad":8384,"Ġregex":8385,"Ġcontrols":8386,"IDEA":8387,"Ġfrequ":8388,"SafeRunnable":8389,"Checks":8390,"Ġreferenced":8391,"InputStreamReader":8392,"hello":8393,"Ġdescrib":8394,"ĠCopyright":8395,"ĠZK":8396,"Graph":8397,"Ġallocated":8398,"enabled":8399,"Ġactivities":8400,"ĠConsumer":8401,"Ġpotentially":8402,"BlobStoreContextModule":8403,"SecurePreferences":8404,"borderStyle":8405,"Canvas":8406,"mouseDown":8407,"ĠAVD":8408,"âĢĶâĢĶ":8409,"fortunately":8410,"/-/":8411,"JFaceUtil":8412,"').":8413,"250":8414,"219":8415,"4537":8416,"699":8417,"9000":8418,">.":8419,"Align":8420,"Cn":8421,"GI":8422,"Groovy":8423,"Geolocation":8424,"Jira":8425,"Mer":8426,"Modules":8427,"Ptr":8428,"Warning":8429,"ict":8430,"iet":8431,"last":8432,"ltk":8433,"tag":8434,"Ġroles":8435,"ervice":8436,"erial":8437,"onym":8438,"Ġcli":8439,"arb":8440,"Ġpane":8441,"Ġmon":8442,"Ġmatter":8443,"entry":8444,"adow":8445,"ĠACL":8446,"Ġonto":8447,"Ġstage":8448,"Ġstuff":8449,"quired":8450,"Ġexchange":8451,"ĠDR":8452,"ĠMove":8453,"ĠMemory":8454,"ndk":8455,"ĠFl":8456,"intro":8457,"Ġrespond":8458,"ĠOCS":8459,"554":8460,"Ġfilename":8461,"Ġ4740":8462,"Ġ<?":8463,"()');":8464,"288":8465,"251":8466,"389":8467,"ĠGot":8468,"ĠGUI":8469,"Ġtriggers":8470,"993":8471,"Ġplay":8472,"reshold":8473,"Ġrepeated":8474,"59884":8475,"astore":8476,"addTab":8477,"Ġ18127":8478,"noarch":8479,"eek":8480,"encast":8481,"ĠUIView":8482,"697":8483,"ĠOpened":8484,"tiapp":8485,"Settings":8486,"LOG":8487,"Sending":8488,"TIME":8489,"9219":8490,"mobileweb":8491,"Ġpicture":8492,"ĠDoes":8493,"optim":8494,"ragment":8495,"URLClassLoader":8496,"Ġ7953":8497,"engine":8498,"Ġmachines":8499,"Ġtracking":8500,"Download":8501,"Ġscenarios":8502,"Ġexperience":8503,"ĠLiveView":8504,"Ġopacity":8505,"jpg":8506,"Ġmacro":8507,"Authenticator":8508,"Migrate":8509,"webkitbrowser":8510,"executeWithChecks":8511,"453759884":8512,"524":8513,"724":8514,":{":8515,"<>":8516,"Ant":8517,"AIN":8518,"Dir":8519,"Ent":8520,"Fin":8521,"Fatal":8522,"GB":8523,"Io":8524,"JR":8525,"Mysql":8526,"calibrate":8527,"fits":8528,"jas":8529,"oom":8530,"por":8531,"pret":8532,"random":8533,"some":8534,"scons":8535,"xb":8536,"Ġui":8537,"erApplicationContext":8538,"Ġtre":8539,"Ġtalk":8540,"Ġsam":8541,"Ġcamel":8542,"Ġtogg":8543,"aru":8544,"Ġbool":8545,"asing":8546,"etas":8547,"Ġnum":8548,"amazon":8549,"Ġreopen":8550,"ades":8551,"iml":8552,"Ġ250":8553,"Ġpropag":8554,"plash":8555,"ĠCase":8556,"olving":8557,"Ġcomes":8558,"quiz":8559,"rient":8560,"atory":8561,"Ġexcept":8562,"ĠDialog":8563,"113":8564,"Profile":8565,"irror":8566,"ĠNe":8567,"libc":8568,"ĠThank":8569,"182":8570,"itionally":8571,"ĠHand":8572,"297":8573,"587":8574,"579":8575,"Ġlisten":8576,"...\"":8577,"ĠVFY":8578,"Ġbackend":8579,"Ġ$.":8580,"Ġreporting":8581,"Ġotherwise":8582,"Ġshut":8583,"ĠDeveloper":8584,"currently":8585,"ĠAuthorization":8586,"etched":8587,"Ġstatements":8588,"Encoding":8589,"ĠScreen":8590,"ĠTherefore":8591,"Ġstories":8592,"Ġtyping":8593,"Ġabort":8594,"Ġobserver":8595,"Ġobvious":8596,"Ġterms":8597,"Shutdown":8598,"DebugUI":8599,"restore":8600,"Ġexported":8601,"ĠâĢĺ":8602,"201212":8603,"statements":8604,"Ġincorrectly":8605,"Ġchildren":8606,"ĠREADME":8607,"longjohn":8608,"ProgressMonitor":8609,"Ġcommunity":8610,"Ġnormally":8611,"35545":8612,"ĠConnector":8613,"ĠTODO":8614,"ErrorHandlingTaskExecutor":8615,"inois":8616,"singlenode":8617,"solid":8618,"ĠNULL":8619,"Lightweight":8620,"ĠDownload":8621,"erApplicationContextExecutor":8622,"339":8623,"325":8624,"786":8625,"AGE":8626,"Cent":8627,"CSS":8628,"Each":8629,"Hadoop":8630,"NO":8631,"Pers":8632,"TEXT":8633,"Wcs":8634,"bi":8635,"btn":8636,"cy":8637,"flix":8638,"non":8639,"public":8640,"ruble":8641,"watch":8642,"orial":8643,"recurs":8644,"Ġca":8645,"aver":8646,"Ġblob":8647,"undeploy":8648,"illed":8649,"Ġopp":8650,"Ġreuse":8651,"Ġhint":8652,"img":8653,"Ġ(_":8654,"Ġconc":8655,"Ġstable":8656,"Ġ\".":8657,"Ġrad":8658,"ĠRC":8659,"erscore":8660,"keys":8661,"Ġ[];":8662,"rammd":8663,"ĠDuplicate":8664,"ĠDSL":8665,"ĠMar":8666,"10480":8667,"anging":8668,"bout":8669,"1407":8670,"ĠEnd":8671,"ĠEntity":8672,"ĠLcom":8673,"ivale":8674,"236":8675,"Ġ---":8676,"266":8677,"phan":8678,"ĠHe":8679,"ERK":8680,"392":8681,"285":8682,"245":8683,"Ġyear":8684,"Throw":8685,"38391":8686,"ĠiTunes":8687,"349":8688,"Ġenh":8689,"486":8690,"pute":8691,"TiApplication":8692,"buildpath":8693,"Ġprocessors":8694,"Ġfailover":8695,"DefaultMule":8696,"351":8697,"sian":8698,"542":8699,"Ġporting":8700,"Ġportrait":8701,"ĠAdditionally":8702,"Ġreproduc":8703,"TRAIT":8704,"Ġtextfield":8705,"netflix":8706,"AULT":8707,"ĠTesting":8708,"1270":8709,"Ġeditors":8710,"RIG":8711,"subject":8712,"subaru":8713,"Ġconstants":8714,"Ġinitially":8715,"regex":8716,"sdks":8717,"Ġ4739":8718,"messageflow":8719,"SpringApplication":8720,"ĠArtifact":8721,"Ġscrolling":8722,"Ġhigher":8723,"Ġconsidered":8724,"AnalysisExecutor":8725,"Ġdetermin":8726,"Ġdeclar":8727,"Ġarchitecture":8728,"Ġintegrated":8729,"44950":8730,"Ġmeaning":8731,"Ġgrades":8732,"Ġinstrumentation":8733,"SecurityInterceptor":8734,"KEY":8735,"LiveView":8736,"GeneratedMethodAccessor":8737,"Privileg":8738,"qualifier":8739,"Evaluator":8740,"ĠRESULT":8741,"remote":8742,"Ġbenef":8743,"9219896":8744,"recursive":8745,"%,":8746,"%|":8747,"'),":8748,"616":8749,"608":8750,"906":8751,"QA":8752,"RK":8753,"Ssi":8754,"YY":8755,"auge":8756,"dr":8757,"dom":8758,"feedback":8759,"iph":8760,"jgit":8761,"menu":8762,"next":8763,"sr":8764,"uation":8765,"uck":8766,"uous":8767,"yon":8768,"zed":8769,"Ġquestions":8770,"ester":8771,"Ġalign":8772,"Ġsecure":8773,"isql":8774,"iting":8775,"any":8776,"Ġwar":8777,"Ġboolean":8778,"utorial":8779,"ĠTarget":8780,"0004":8781,"licies":8782,"Ġusually":8783,"artz":8784,"ĠDEC":8785,"proj":8786,"product":8787,"Ġeg":8788,"ĠFITS":8789,"throw":8790,"1480":8791,"irc":8792,"Ġwhatever":8793,"ĠNDK":8794,"Device":8795,"Imp":8796,"iven":8797,"ĠBack":8798,"ĠHttp":8799,"ĠHave":8800,"ĠUsers":8801,"Ġplug":8802,"logs":8803,"2013":8804,"ificant":8805,"AccessLog":8806,"Actions":8807,"ProcessUtil":8808,"AccessorImpl":8809,"ĠQue":8810,"Ġhandles":8811,"Ġbeta":8812,"Ġrefres":8813,"Ġunderlying":8814,"csv":8815,"recent":8816,"ĠComponent":8817,"wrap":8818,"ValueResolver":8819,"StateException":8820,"Integrate":8821,"Ġroutes":8822,"Ġ4738":8823,"preference":8824,"Ġproduces":8825,"ĠMesosContainerizer":8826,"BeanDefinitionValueResolver":8827,"Ġretrieved":8828,"SessionImpl":8829,"Ġlimited":8830,"Ġ----------------------------------------------------------------":8831,"ĠborderWidth":8832,"NotificationExecutionInterceptor":8833,"ĠTrying":8834,"AVE":8835,"TimeoutException":8836,"MessageProcessorNotificationExecutionInterceptor":8837,"simple":8838,"ĠOracle":8839,"Ġprevents":8840,"********************************":8841,"Ġtechno":8842,"Ġchecksum":8843,"Parameterized":8844,"ConstructorAccessorImpl":8845,"Ġpixels":8846,"Ġpurpose":8847,"ĠSUCCESS":8848,"extensions":8849,"Ġlegacy":8850,"pwang":8851,"Ġsatisfy":8852,"ARCHAR":8853,"jammes":8854,"353":8855,"422":8856,"656":8857,"854":8858,"908":8859,":~":8860,"AG":8861,"BR":8862,"Full":8863,"Fetcher":8864,"Jdbc":8865,"NING":8866,"Put":8867,"bad":8868,"cal":8869,"dor":8870,"gms":8871,"ncs":8872,"ĠKe":8873,"Ġ------------":8874,"repo":8875,"Ġssh":8876,"Ġcron":8877,"Ġcss":8878,"Ġflo":8879,"Ġpanel":8880,"lots":8881,"Ġmeta":8882,"Ġmiddle":8883,"amd":8884,"Ġday":8885,"ĠIS":8886,"iding":8887,"agraw":8888,"usp":8889,"ĠAnt":8890,"Ġrate":8891,"ultane":8892,"ĠWait":8893,"illinois":8894,"1202":8895,"ĠEl":8896,"Ġcontribut":8897,"559":8898,"Ġ44":8899,"Video":8900,"090":8901,"acegis":8902,"pound":8903,"ĠInternal":8904,"588":8905,"}})":8906,"57268":8907,"reserve":8908,"ffix":8909,"BuildParticipant":8910,"467":8911,"egrity":8912,"Ġ18126":8913,"ClassRunner":8914,"ftp":8915,"earn":8916,"settings":8917,"Ġwrap":8918,"ErrorHandler":8919,"RequestMapping":8920,"ierarchical":8921,"Ġlinked":8922,"Ġflux":8923,"Ġcoadd":8924,"ĠKS":8925,"dispatchMessage":8926,"stringify":8927,"ĠĠĉĉĉĉĉ":8928,"Ġconstant":8929,"cmd":8930,"LOE":8931,"Ġflows":8932,"ĠUsergrid":8933,"platforms":8934,"UnitTest":8935,"ĠSetup":8936,"Org":8937,"Ġ27646":8938,"gregate":8939,"ĠArray":8940,"Ġestimation":8941,"Ġhappening":8942,"ĠDurAdmin":8943,"XXX":8944,"ĠborderColor":8945,"Ġmigrate":8946,"Ġimpact":8947,"simulator":8948,"Ġintegrate":8949,"fontSize":8950,"sequence":8951,"executors":8952,"expand":8953,"Ġmonitoring":8954,"Ġmanaged":8955,"createTableViewRow":8956,"ĠLOG":8957,"Ġmerged":8958,"ĠRestart":8959,"Tracker":8960,"written":8961,"Ġcommunication":8962,"Ġrecommend":8963,"ĠMultiple":8964,"ĠTraceback":8965,"Ġdelegate":8966,"Ġsomewhere":8967,"amqp":8968,"Ġupgraded":8969,"RunLoopRun":8970,"Ġlifecycle":8971,"havior":8972,"ivalent":8973,"ncsa":8974,"agrawal":8975,"acegisecurity":8976,"\"]":8977,"-+":8978,"/'":8979,"350":8980,"4128":8981,":[":8982,">)":8983,"BE":8984,"EP":8985,"Em":8986,"Photo":8987,"Ruby":8988,"Ul":8989,"[]":8990,"czar":8991,"cancel":8992,"dashboard":8993,"lish":8994,"rr":8995,"sen":8996,"Ġtaps":8997,"Ġtaking":8998,"ĠtMatch":8999,"ons":9000,"remo":9001,"Ġshe":9002,"Ġcross":9003,"Ġfall":9004,"Ġmask":9005,"Ġanim":9006,"ĠTCP":9007,"verage":9008,"ĠRec":9009,"ower":9010,"osch":9011,"Exists":9012,"ĠPaste":9013,"ĠMenu":9014,"prod":9015,"Ġ*.":9016,"strategy":9017,"forms":9018,"1404":9019,"ĠEach":9020,"ailing":9021,"Contributor":9022,"iva":9023,"ived":9024,"Ġ4741":9025,"Ġnewer":9026,"ĠBecause":9027,"AbstractDispatcher":9028,"396":9029,"278":9030,"Ġ})":9031,"565":9032,"Ġplaced":9033,"Ġrepeat":9034,"ipad":9035,"Ġ{{/":9036,"doIntercept":9037,"ĠReview":9038,"valves":9039,"WindowProc":9040,"321":9041,"Ġcolors":9042,"889":9043,"Values":9044,"Ġscreens":9045,"Ġthemes":9046,"ĠApplied":9047,"webapps":9048,"Errors":9049,"FileIndexing":9050,"Any":9051,"Ġloads":9052,"AbstractMessageSending":9053,"Ġcustomer":9054,"Ġcleaned":9055,"stackoverflow":9056,"Ġchoice":9057,"ĠProcessor":9058,"Ġacceptance":9059,"Ġspecifying":9060,"Ġ7951":9061,"Ġtransformer":9062,"Ġ21806":9063,"ĠInstaller":9064,"Types":9065,"Ġdescribe":9066,"pageid":9067,"AutoConfiguration":9068,"Ġ13312":9069,"Leader":9070,"CFG":9071,"ScheduledFutureTask":9072,"................":9073,"Ġswiml":9074,"Ġreplicate":9075,"Ġproducts":9076,"ANDSCAPE":9077,"ĠPortal":9078,"Ġregardless":9079,"37526":9080,"ĠPOJO":9081,"ĠPassing":9082,"Timer":9083,"PlainSocketImpl":9084,"FileIndexingParticipant":9085,"AbstractMessageSendingTemplate":9086,"455":9087,"<>::":9088,"BUILD":9089,"Gen":9090,"HE":9091,"IC":9092,"Push":9093,"Pipeline":9094,"Rules":9095,"SQ":9096,"ees":9097,"fetcher":9098,"lin":9099,"mall":9100,"microsoft":9101,"pa":9102,"wp":9103,"xa":9104,"xproj":9105,"zing":9106,"iny":9107,"Ġsafe":9108,"Ġcd":9109,"Ġcxf":9110,"Ġcalibrate":9111,"isk":9112,"Ġfactory":9113,"Ġfetched":9114,"Ġworld":9115,"Ġbuffer":9116,"Ġpipeline":9117,"asc":9118,"Ġneg":9119,"Ġren":9120,"Ġrely":9121,"ĠSRC":9122,"ager":9123,"Ġ(@":9124,"Ġbeans":9125,"ollow":9126,"aining":9127,"Ġgrow":9128,"ĠPage":9129,"ĠPATH":9130,"Construct":9131,"ĠĠĠĠĠĠĠĠĠĠĠĠĠĠĠĠĠĠĠĠĠĠ":9132,"Ġcontact":9133,"ĠJira":9134,"ĠJDT":9135,"ĠHost":9136,"248":9137,"259":9138,"465":9139,"Ġholes":9140,"Ġarrow":9141,"ĠVARCHAR":9142,"Ġpretty":9143,"ServiceResource":9144,"scre":9145,"Ġinstalls":9146,"Ġlocator":9147,"WidgetSelection":9148,"Ġdesired":9149,"handleWidgetSelection":9150,"TRI":9151,"tesb":9152,"ongo":9153,"Ġcompiled":9154,"Refresh":9155,"Ġaccessing":9156,"APP":9157,"Simulator":9158,"ĠCommon":9159,"Ġwebview":9160,"ĠAny":9161,"Ġabsolute":9162,"region":9163,"Ġminor":9164,"SimpleJob":9165,"LabelProvider":9166,"ĠERR":9167,"ynamically":9168,"MapView":9169,"Ġchosen":9170,"Ġsuggested":9171,"ĠborderRadius":9172,"Ġdecide":9173,"*)+":9174,"ĠNOTE":9175,"Ġrecords":9176,"15583":9177,"require":9178,"Ġ30228":9179,"---+":9180,"3474":9181,"Ġreceives":9182,"Manifest":9183,"DefaultListableBeanFactory":9184,"butlerUtils":9185,"Ġsubsystems":9186,"Cnxn":9187,"RequestMappingHandler":9188,"328":9189,"413":9190,"409":9191,"728":9192,"BB":9193,"Ho":9194,"Mixed":9195,"OK":9196,"Ubuntu":9197,"hide":9198,"ne":9199,"pter":9200,"pass":9201,"qtt":9202,"vlet":9203,"Ġ67":9204,"inx":9205,"Ġcy":9206,"Ġphot":9207,"utf":9208,"Ġnumer":9209,"Ġnightly":9210,"Ġanswer":9211,"ĠTEST":9212,"adget":9213,"Ġhal":9214,"igning":9215,"iginal":9216,"Ġcomposed":9217,"hence":9218,"Ġ[-":9219,"appers":9220,"ĠDisplay":9221,"Ġassets":9222,"ops":9223,"getFile":9224,"uglify":9225,"ĠFY":9226,"izes":9227,"UIView":9228,"1465":9229,"ReEncry":9230,"ĠEX":9231,"ĠNetwork":9232,"ĠNothing":9233,"Ġupgrading":9234,"ivity":9235,"Ġimpossible":9236,"Ġ<<":9237,"ĠBean":9238,"FilterProxy":9239,"AbstractProtocol":9240,"Ġ}));":9241,"createPicker":9242,"Ġauth":9243,"Testing":9244,"570":9245,"PID":9246,"46283":9247,"loading":9248,"doGet":9249,"ĠResponse":9250,"finish":9251,"widgetSelected":9252,"DefaultSave":9253,"370":9254,"contains":9255,"Ġparty":9256,"Ġ75":9257,"ProcessorChain":9258,"Ġentities":9259,"DelegatingFilterProxy":9260,"Items":9261,"startup":9262,"Author":9263,"hostname":9264,"Ġconnectors":9265,"Controls":9266,"Locale":9267,"Ġinvoked":9268,"Ġoffset":9269,"Ġpract":9270,"retry":9271,"ĠChannel":9272,"Ġhelloworld":9273,"DispatcherServlet":9274,"Ġtimestamp":9275,"ParserPool":9276,"Shift":9277,"Ġautomatic":9278,"GetChildren":9279,"ChangeOperation":9280,"EEE":9281,"Ġdownloaded":9282,"SpringXD":9283,"Ġpatterns":9284,"bytes":9285,"Ġnavigation":9286,"RUNNING":9287,"ĠREAD":9288,"Ġextends":9289,"Ġhooks":9290,"MBeanServer":9291,"Offset":9292,"Ġtechnical":9293,"SSLSocketImpl":9294,"route":9295,"BasicNew":9296,"Ġslider":9297,"Ġevaluation":9298,"PerformChangeOperation":9299,"PORTRAIT":9300,"IdeEventQueue":9301,"AllocatorTest":9302,"SubjectCallable":9303,"ĠReplicate":9304,"MysqlIO":9305,"ParameterizedCommand":9306,"RequestMappingHandlerAdapter":9307,"MixedContent":9308,"ReEncrypter":9309,"GetChildrenBuilderImpl":9310,"10000":9311,"408":9312,"715":9313,"756":9314,"800":9315,">\"":9316,">}}":9317,"BS":9318,"Cocoa":9319,"Catalog":9320,"Email":9321,"GET":9322,"Hibernate":9323,"Split":9324,"TST":9325,"Xcode":9326,"aff":9327,"beta":9328,"bottom":9329,"cise":9330,"credential":9331,"dml":9332,"fjammes":9333,"rer":9334,"ric":9335,"sli":9336,"tss":9337,"ĉĠĉ":9338,"Ġtro":9339,"atest":9340,"learned":9341,"Ġslot":9342,"Ġcc":9343,"items":9344,"edian":9345,"Ġwatermark":9346,"arrow":9347,"unix":9348,"unctor":9349,"Ġdig":9350,"Ġreactor":9351,"ĠTermin":9352,"ĠSuper":9353,"ĠSIG":9354,"adapter":9355,"Ġfork":9356,"ĠAcc":9357,"Ġproduced":9358,"updated":9359,"ĠRent":9360,"Constraint":9361,"1053":9362,"runs":9363,"permission":9364,"Ġelected":9365,"izable":9366,"izont":9367,"compute":9368,"iokit":9369,"1383":9370,"Ġ413":9371,"2738":9372,"257":9373,"Ġunlearned":9374,"478":9375,"585":9376,"5758":9377,"Ġplain":9378,"FOR":9379,"logger":9380,"logdata":9381,"Ġlig":9382,"590":9383,"59302":9384,"Ġhash":9385,"Ġclassic":9386,"Ġarbit":9387,"490":9388,"Ġsimultane":9389,"Ġparity":9390,"Ġkeystore":9391,"ONLY":9392,"Ġshare":9393,"Ident":9394,"CommandProcessor":9395,"ĠSeeked":9396,"Ġ90":9397,"Only":9398,"Webwork":9399,"UND":9400,"Ġcriteria":9401,"Ġfiltered":9402,"Ġperformed":9403,"LOCATION":9404,"Ġinitialize":9405,"SHA":9406,"ĠCheckpointing":9407,"commandline":9408,"Ġcorner":9409,"Ġdiscussed":9410,"ĠWARNING":9411,"FILE":9412,"Ġ15088":9413,"Counter":9414,"Ġidentical":9415,"Ġidentified":9416,"Ġhappened":9417,"Ġstops":9418,"Ġ15708":9419,"Ġblur":9420,"XmlBeanDefinitionReader":9421,"domains":9422,"liverable":9423,"DocGenerator":9424,"Ġcollections":9425,"Ġequivalent":9426,"Multiple":9427,"MBP":9428,"Ġrendering":9429,"ĠConsider":9430,"40696":9431,"ĠCompacted":9432,"Ġbaseline":9433,"AlertDialog":9434,"ĠSHA":9435,"ĠSpecific":9436,"Ġstopped":9437,"Enhancer":9438,"ĠIterated":9439,"Ġdisposed":9440,"ĠThanks":9441,"ĠtMatchGroup":9442,"'}":9443,"/*":9444,"318":9445,"610":9446,"686":9447,"730":9448,"837":9449,"BC":9450,"Bad":9451,"Dq":9452,"JIo":9453,"NN":9454,"Pos":9455,"PRE":9456,"SD":9457,"Syntax":9458,"TT":9459,"ah":9460,"cpus":9461,"dans":9462,"gdans":9463,"ias":9464,"ness":9465,"range":9466,"should":9467,"tist":9468,"xce":9469,"yarn":9470,"zes":9471,"¿½":9472,"ï¿½":9473,"ĠĈ":9474,"Ġhence":9475,"including":9476,"Ġsens":9477,"Ġcost":9478,"Ġflex":9479,"Ġtoast":9480,"Ġmess":9481,"Ġden":9482,"chie":9483,"Ġorphan":9484,"ĠIgn":9485,"ĠSVN":9486,"esture":9487,"Ġ174":9488,"exus":9489,"002":9490,"Ġfore":9491,"orked":9492,"vey":9493,"ĠCl":9494,"ifies":9495,"Ġcoming":9496,"019":9497,"Ġ[.]":9498,"ĠPri":9499,"appicon":9500,"ĠDon":9501,"getS":9502,"ured":9503,"angle":9504,"Ġecho":9505,"bool":9506,"condition":9507,"ĠStorage":9508,"ĠNull":9509,"Ġcontribution":9510,"Ġ/**":9511,"Ġscal":9512,"ĠBy":9513,"EventThread":9514,"294":9515,"dba":9516,"383":9517,"ĠGWT":9518,"4720":9519,"348":9520,"367":9521,"doExecute":9522,"TiActivity":9523,"201110":9524,"Ġlisteners":9525,"Ġqual":9526,"TitaniumProjectWizard":9527,"Ġcoll":9528,"Ġ!=":9529,"Ġviewer":9530,"ContextHandler":9531,"Ġwriter":9532,"ĠĠĉĉĠĠĠ":9533,"aussian":9534,"parsers":9535,"Ġ61":9536,"ĠtableView":9537,"venance":9538,"ContentProvider":9539,"Ġcontexts":9540,"ĠAttached":9541,"AbstractMessageProcessorChain":9542,"Ġstores":9543,"Ġ20150114":9544,"ĠNotes":9545,"Ġteacher":9546,"Shard":9547,"Rows":9548,"SlaveHandlerService":9549,"rieve":9550,"selectId":9551,"ormal":9552,"ĠWorking":9553,"ReportDocGenerator":9554,"Ġreasons":9555,"blue":9556,"Tools":9557,"Toolbar":9558,"Ġuploaded":9559,"ECK":9560,"Height":9561,"vcxproj":9562,"Ġmaximum":9563,"Ġrecently":9564,"Ġ()(":9565,"operator":9566,"MySQL":9567,"ffffff":9568,"IllegalStateException":9569,"TransactionInterceptor":9570,"Ġturned":9571,"AsyncProcessorHelper":9572,"Ġsnippets":9573,"Ġcalculate":9574,"Hyperlink":9575,"Ġconsumers":9576,"9999999999999":9577,"Ġexactly":9578,"Spel":9579,"nowled":9580,"WaiterApplicationContextExecutor":9581,"Ġearlier":9582,"alesforce":9583,"DependencyWaiterApplicationContextExecutor":9584,"guard":9585,"ĠInvestigate":9586,"Measurement":9587,"AuthenticatorBase":9588,"rientation":9589,"LeaderSelector":9590,"BasicNewTitaniumProjectWizard":9591,"JIoEndpoint":9592,"gdansk":9593,"!--":9594,"+'":9595,"315":9596,"405":9597,"687":9598,":<":9599,"Available":9600,"BD":9601,"Book":9602,"Drag":9603,"FT":9604,"JMS":9605,"LIN":9606,"MV":9607,"META":9608,"OD":9609,"PT":9610,"Since":9611,"SION":9612,"Xrd":9613,"dss":9614,"gle":9615,"hort":9616,"hierarchy":9617,"note":9618,"number":9619,"pkg":9620,"wxr":9621,"Ġ..":9622,"Ġtwe":9623,"atial":9624,"lett":9625,"Ġsandbox":9626,"Ġsites":9627,"Ġcaching":9628,"Ġwarn":9629,"cell":9630,"Ġindepend":9631,"ĠId":9632,"ĠScript":9633,"usage":9634,"abs":9635,"Ġproduc":9636,"Ġstout":9637,"Ġrid":9638,"erson":9639,"Ġlauncher":9640,"Ġlinux":9641,"elastic":9642,"acter":9643,"Ġ'',":9644,"Ġgather":9645,"ĠPost":9646,"Ġexceed":9647,"Ġ3507":9648,"assess":9649,"Ġasynchron":9650,"profile":9651,"ĠWould":9652,"ĠFootprint":9653,"Ġrespect":9654,"ĠOAuth":9655,"163":9656,"19289":9657,"ĠBB":9658,"ĠBUILD":9659,"261":9660,"WorkUnit":9661,"Ġuncheck":9662,"ĠGroovy":9663,"***":9664,"ipel":9665,"Ġenc":9666,"Ġenabling":9667,"364":9668,"468":9669,"ĠExtr":9670,"595":9671,"20110":9672,"msdn":9673,"Unique":9674,"867":9675,"372":9676,"354":9677,"Ġsufficient":9678,"Ġanyway":9679,"032738":9680,"Ġoverwrite":9681,"Ġlibc":9682,"663":9683,"Ġintent":9684,"Ġinteger":9685,"shutdown":9686,"Ġways":9687,"Edge":9688,"REATE":9689,"42069":9690,"Ġdistro":9691,"Ġreads":9692,"classic":9693,"Ġxhr":9694,"Ġthrowing":9695,"wrapper":9696,"cmake":9697,"Ġconverted":9698,"Ġclone":9699,"Ġproviding":9700,"TISTUD":9701,"ĠOSX":9702,"Transform":9703,"RepositoryWorkUnit":9704,"SimpleModule":9705,"Double":9706,"Ġdeletion":9707,"Ġprompts":9708,"Ġlongitude":9709,"ĠSetting":9710,"launchConfiguration":9711,"Ġexports":9712,"ĠDesktop":9713,"FIG":9714,"Ġ31525":9715,"Ġwhose":9716,"BeanDefinitions":9717,"ognized":9718,"Compare":9719,"Recorder":9720,"Ġsuggestion":9721,"secure":9722,"Ġaccounts":9723,"helper":9724,"OutputStream":9725,"Ġrecognize":9726,"Ġ27641":9727,"40429":9728,"SERV":9729,"Ġpossibility":9730,"ĠAgent":9731,"Ġsupposed":9732,"MacOS":9733,"ĠLiveViewer":9734,"PostProcessor":9735,"related":9736,"Ġreceiving":9737,"Activator":9738,"Ġcentral":9739,"=\"#[":9740,"lambdaworks":9741,"Ġintermittent":9742,"ExecutableExtension":9743,"ĠActiveMQ":9744,"ĠMonitoring":9745,"FreemarkerManager":9746,"Centroid":9747,"Ġradio":9748,"ĠDECam":9749,"TRIBU":9750,"Ġlight":9751,"ï¿½?":9752,"lettuce":9753,"&,":9754,"327":9755,"40000000000001":9756,"59999999999999":9757,"684":9758,"90000000000001":9759,"Browser":9760,"Coverage":9761,"DD":9762,"Ensure":9763,"FD":9764,"FAILED":9765,"How":9766,"IX":9767,"NPE":9768,"Py":9769,"Sk":9770,"So":9771,"Same":9772,"SUI":9773,"_.":9774,"aed":9775,"family":9776,"friend":9777,"gment":9778,"olokia":9779,"pet":9780,"tar":9781,"total":9782,"Ġ74":9783,"Ġtesb":9784,"atched":9785,"Ġact":9786,"Ġack":9787,"ision":9788,"edic":9789,"Ġbundles":9790,"Ġant":9791,"Ġdump":9792,"Ġredeploy":9793,"chart":9794,"ĠTSS":9795,"ĠToken":9796,"ĠTuple":9797,"ĠSoftware":9798,"Ġthreshold":9799,"estination":9800,"Ġ127":9801,"ims":9802,"icode":9803,"ĠAm":9804,"emon":9805,"Ġstay":9806,"ĠRed":9807,"ĠRout":9808,"Ġnotify":9809,"Ġlack":9810,"Ġgcc":9811,"rive":9812,"eprec":9813,"ĠPattern":9814,"Ġusability":9815,"ĠMin":9816,"ĠMULE":9817,"Ġ3500":9818,"runIn":9819,"forPath":9820,"Ġevaluate":9821,"ĠFuture":9822,"illa":9823,"completion":9824,"Ġapplies":9825,"UIEnhancer":9826,"221":9827,"226":9828,"ĠEven":9829,"ĠEither":9830,"ĠElected":9831,"irection":9832,"::~":9833,"Ġresolution":9834,"Ġreserved":9835,"Develop":9836,"09999999999999":9837,"Ġjr":9838,"uick":9839,"ĠBY":9840,"phinx":9841,"MethodReference":9842,"561":9843,"Ġconfiguring":9844,"TestService":9845,"Handsh":9846,"Ġ{{<":9847,"481":9848,"Ġsupporting":9849,"ĠReplace":9850,"HandlerMetrics":9851,"Ġquality":9852,"377":9853,"ARY":9854,"schemas":9855,"Ġlibmesos":9856,"660":9857,"Ġintroduce":9858,"Repeated":9859,"ĠAddress":9860,"InterceptorChain":9861,"JobExecution":9862,"Ġcompilation":9863,"True":9864,"Ġmanual":9865,"READ":9866,"Ġnamespaces":9867,"Ġinvocation":9868,"Ġoffic":9869,"Ġoffline":9870,"Ġxcode":9871,"GroupProcess":9872,"Arch":9873,"JavaScript":9874,"Ġindicates":9875,"EditorReference":9876,"Ġperforming":9877,"ĠSept":9878,"reenHo":9879,"ĠRecovered":9880,"Ġfreed":9881,"ĠWorkaround":9882,"Ġ'*'":9883,"Ġmeasurements":9884,"showWhile":9885,"0000000198":9886,"Ġsignificant":9887,"Ġretrieving":9888,"Compat":9889,"Ġ32249":9890,"objectId":9891,"blocks":9892,"Matching":9893,"Grails":9894,"ĠGrails":9895,"ĠGraph":9896,"ĠLinuxFilesystemIsolatorTest":9897,"MultiPage":9898,"ymlink":9899,"Ġconsistently":9900,"Ġtrunk":9901,"renderers":9902,"Failure":9903,"Failover":9904,"ĠBehavior":9905,"ucy":9906,"ĠĠĠĠĠĠĠĠĠĠĠĠĠĠĠĠĠĠĠĠĠĠĠĠĠĠĠĠĠĠĠĠĠĠĠĠĠĠĠĠĠĠĠĠĠĠĠĠĠĠĠĠĠĠĠĠĠĠĠĠĠĠĠĠĠĠĠĠĠĠĠĠĠĠĠĠĠĠĠĠĠĠĠĠĠĠĠĠĠĠĠĠĠĠĠĠĠĠĠĠĠĠĠĠĠĠĠĠĠĠĠĠĠĠĠĠĠĠĠĠĠĠĠĠĠĠĠĠĠĠĠĠĠĠĠĠĠĠĠĠĠĠĠĠĠĠĠĠĠĠĠĠĠĠĠĠĠĠĠĠ":9907,"Ġpromised":9908,"dependencies":9909,"ĠCCD":9910,"ĠMaybe":9911,"ĠArchive":9912,"////////////////////////////////":9913,"ĠreadyState":9914,"SingleNode":9915,"Ġadministrator":9916,"Ġ26401":9917,"ĠCentOS":9918,"SimpleMessageHandlerMetrics":9919,"liveview":9920,"MetaData":9921,"discussion":9922,"PtrField":9923,"yond":9924,"Ġ------------->":9925,"Embed":9926,"ParserPoolFactory":9927,"ĠREADONLY":9928,"CocoaUIEnhancer":9929,"Ġarbitrary":9930,"20111024":9931,"RepeatedPtrField":9932,"reenHopper":9933,"\"?":9934,".:":9935,"439":9936,"432":9937,"Ac":9938,"CI":9939,"CU":9940,"Guide":9941,"LANDSCAPE":9942,"Mem":9943,"Pass":9944,"TDQ":9945,"dpi":9946,"dynamic":9947,"drawable":9948,"gmail":9949,"hat":9950,"jet":9951,"luc":9952,"mid":9953,"may":9954,"nl":9955,"pic":9956,"poll":9957,"va":9958,"vendor":9959,"inic":9960,"Ġslight":9961,"Ġcame":9962,"Ġcare":9963,"Ġcategories":9964,"Ġcirc":9965,"anonymous":9966,"anaconda":9967,"alth":9968,"Ġphone":9969,"Ġmand":9970,"Ġnature":9971,"stats":9972,"Ġreconnect":9973,"chat":9974,"ĠTABLE":9975,"ĠSW":9976,"idy":9977,"ided":9978,"Ġ104":9979,"004":9980,"ected":9981,"ĠAST":9982,"Ġconstraint":9983,"ĠCE":9984,"ĠCR":9985,"Ġrace":9986,"lipboard":9987,"odb":9988,"quality":9989,"ried":9990,"Examples":9991,"ĠPax":9992,"Ġ06":9993,"Ġusual":9994,"Ġalthough":9995,"InMethod":9996,"ocal":9997,"ocial":9998,"anip":9999,"ĠWcs":10000,"ford":10001,"ĠEUPS":10002,"Ġ/*":10003,"Ġrespective":10004,"Containers":10005,"ĠLabel":10006,"acebook":10007,"blend":10008,"ĠBasic":10009,"2827":10010,"277":10011,"createExecutableExtension":10012,"ĠInsert":10013,"clinic":10014,"474":10015,"578":10016,"httpclient":10017,"ĠExtend":10018,"790":10019,"792":10020,"2016":10021,"649":10022,"Ġedu":10023,"notifications":10024,"oved":10025,"OTB":10026,"Ġinterval":10027,"ĠobjectId":10028,"HttpRequest":10029,"hedulers":10030,"ATTRIBU":10031,"Scanner":10032,"Ġfixing":10033,"recognized":10034,"Ġmember":10035,"ĠYARN":10036,"Ġstoring":10037,"Ġ27240":10038,"TextEditor":10039,"Ġstacktrace":10040,"Ġproviders":10041,"ALL":10042,"Ġminimal":10043,"IfSupported":10044,"keyboard":10045,"Short":10046,"Shared":10047,"************":10048,"Policy":10049,"applicationProc":10050,"Ġrouter":10051,"Ġconfusion":10052,"Ġlsstsw":10053,"scripts":10054,"Ġterminate":10055,"Ġdownloading":10056,"Ġ15086":10057,"anguages":10058,"Ġ2009":10059,"expressions":10060,"umbn":10061,"Ġcapability":10062,"LaunchConfigurationDelegate":10063,"wizards":10064,"MobileWeb":10065,"crypt":10066,"Ġpublishing":10067,"Ġphp":10068,"Ġcompute":10069,"Ġchunks":10070,"Return":10071,"Ġbreakpoints":10072,"Ġrepresentation":10073,"Ġ20150224":10074,"Ġskip":10075,"Ġdataset":10076,"ĠDistribution":10077,"ArrayIndexOutOfBoundsException":10078,"Ġseman":10079,"Ġdelivered":10080,"liminate":10081,"deleted":10082,"optional":10083,"Ġjoined":10084,"Instrumentation":10085,"ExceptionsInMethod":10086,"Ġreproducible":10087,"screencast":10088,"tistud":10089,"petclinic":10090,"ATTRIBUTE":10091,"ExceptionsInMethodIfSupported":10092,"316":10093,"704":10094,"Bin":10095,"Cxf":10096,"Hash":10097,"Rel":10098,"SW":10099,"Sources":10100,"SAM":10101,"You":10102,"bro":10103,"filing":10104,"jun":10105,"lint":10106,"none":10107,"safe":10108,"vet":10109,"Ġtcp":10110,"Ġcached":10111,"Ġfront":10112,"ashed":10113,"lookup":10114,"Ġdays":10115,"Ġdropped":10116,"Ġdynamically":10117,"ĠIE":10118,"ĠSend":10119,"ĠSafari":10120,"otes":10121,"otion":10122,"esting":10123,"ckto":10124,"usable":10125,"Ġhaven":10126,"0076":10127,"verbose":10128,"Ġproc":10129,"Ġconver":10130,"ĠCar":10131,"Ġrm":10132,"orth":10133,"elcome":10134,"Exec":10135,"Expose":10136,"Information":10137,"ĠMI":10138,"ĠModel":10139,"ĠMax":10140,"Ġ3108":10141,"1032":10142,"production":10143,"runk":10144,"ĠWCS":10145,"ĠWCAG":10146,"ĠFree":10147,"ĠState":10148,"Revisit":10149,"ĠEmail":10150,"ferencing":10151,"errors":10152,"ĠBoth":10153,"touch":10154,"AbstractNew":10155,"3974":10156,"27883":10157,"Ġlogo":10158,"Ġunmount":10159,"Ġunsigned":10160,"5829":10161,"aptcha":10162,"cccc":10163,"ĠXY":10164,"485":10165,"5950":10166,"ĠReserved":10167,"...)":10168,"Ġsomehow":10169,"Ġargs":10170,"ProcessManager":10171,"poses":10172,"Ġsimpl":10173,"Ġlocally":10174,"543":10175,"notification":10176,"Ġremoval":10177,"Tasks":10178,"Collect":10179,"Ġsubtasks":10180,"geom":10181,"ErrorCode":10182,"filename":10183,"HttpParser":10184,"Parameters":10185,"Ġpolicies":10186,"685":10187,"Ġrestrict":10188,"Ġ17500":10189,"ToObject":10190,"Enter":10191,"flux":10192,"Ġpointing":10193,"Ġsinglenode":10194,"ImageDescriptor":10195,"Ġtypically":10196,"Ġhelper":10197,"Ġdeveloped":10198,"ALUE":10199,"Ġblocking":10200,"windowSendEvent":10201,"ĠPlay":10202,"Ġ4734":10203,"sqlite":10204,"Ġverification":10205,"Installer":10206,"Ġcloses":10207,"Order":10208,"Ġdiscuss":10209,"Ġdropdown":10210,"ĠPerform":10211,"CoreException":10212,"Ġswitching":10213,"Ġsmaller":10214,"ĠDetails":10215,"Expand":10216,"InitialDeploymentListener":10217,"Ġproposals":10218,"Disable":10219,"BlockJUnit":10220,"ĠRights":10221,"ĠTools":10222,"ConsoleReader":10223,"CgroupIsolatorTest":10224,"UsingReflection":10225,"Ġquickly":10226,"Ġaccordingly":10227,"Navigator":10228,"RetryLoop":10229,"Ġvisualization":10230,"Ġhangs":10231,"ĠExamplesTest":10232,"invokeJoinpointUsingReflection":10233,"allocated":10234,"Ġestimator":10235,"ĠPMCS":10236,"Ġconvention":10237,"folders":10238,"Ġannotations":10239,"ĠDemo":10240,"ĠOffer":10241,"MethodFilterInterceptor":10242,"Delta":10243,"WebworkSecurityInterceptor":10244,"Ġmandatory":10245,"cktock":10246,")\\\\":10247,"*>":10248,"307":10249,"415":10250,"636":10251,"938":10252,">\",":10253,"Box":10254,"Beta":10255,"Blackberry":10256,"Cat":10257,"Da":10258,"EW":10259,"Err":10260,"Feb":10261,"JNotify":10262,"LES":10263,"Now":10264,"OB":10265,"OAuth":10266,"PR":10267,"Sample":10268,"aight":10269,"bone":10270,"buffer":10271,"diff":10272,"eom":10273,"eared":10274,"lines":10275,"multi":10276,"num":10277,"nos":10278,"pg":10279,"sg":10280,"such":10281,"vector":10282,"Ġ----------------":10283,"Ġtemp":10284,"Ġtutorial":10285,"orpor":10286,"Ġsce":10287,"Ġski":10288,"Ġsolve":10289,"Ġsymlink":10290,"Ġcur":10291,"Ġcoding":10292,"avd":10293,"delay":10294,"Ġplot":10295,"undefined":10296,"loss":10297,"Ġmedia":10298,"Ġreconc":10299,"ĠTOS":10300,"ĠSD":10301,"uses":10302,"007":10303,"ĠAction":10304,"Ġbeaver":10305,"ĠCO":10306,"via":10307,"ĠRel":10308,"Ġcombo":10309,"Ġlanguages":10310,"Ġ[[":10311,"licable":10312,"licated":10313,"ĠPsf":10314,"Ġshot":10315,"Ġ02":10316,"mental":10317,"Ġ39":10318,"1022":10319,"ternet":10320,"ĠFilter":10321,"ĠFeature":10322,"composite":10323,"Ġ===":10324,"2222":10325,"ĠNS":10326,"Ġcontrollers":10327,"5051":10328,"18112":10329,"--------+":10330,"ivotal":10331,"16298":10332,"ĠButton":10333,"ĠTiHttpClient":10334,"Workflow":10335,"ĠHD":10336,"281":10337,"ExceptionReporter":10338,"override":10339,"locity":10340,"Ġspatial":10341,"3613":10342,"4686":10343,"7926":10344,"ĠRefer":10345,"bernd":10346,"Ġ+=":10347,"addr":10348,"201303":10349,"ĠProduction":10350,"Added":10351,"Ġarg":10352,"Ġdisconnected":10353,"containers":10354,"scale":10355,"5450":10356,"Ġimplements":10357,"3333":10358,"gef":10359,"parameter":10360,"Ġassum":10361,"Ġ20140507":10362,"ĠtextField":10363,"Jobs":10364,"Ġconsistency":10365,"Trace":10366,"Ġcolo":10367,"Ġ17505":10368,"Ġstraight":10369,"Ġbehind":10370,"Animation":10371,"flask":10372,"Ġfiltering":10373,"vari":10374,"Ġgiving":10375,"100094":10376,"Ġcleaning":10377,"VERSION":10378,"ĠUnfortunately":10379,"Ġexecutors":10380,"Ġmsg":10381,"ĠLogs":10382,"BarHidden":10383,"OrUpdate":10384,"launching":10385,"Ġexecutions":10386,"000000018":10387,"TableViewRow":10388,"Ġ13932":10389,"Ġ7947":10390,"runWithEvent":10391,"activated":10392,"Supervisor":10393,"Creating":10394,"Protection":10395,"Ġintegrity":10396,"Ġcatalogs":10397,"URAC":10398,"Ġequal":10399,"Ġcomputer":10400,"Ġdurastore":10401,"alibrateTask":10402,"Ġbootstrap":10403,"params":10404,"\\\":\\\"":10405,"Visitor":10406,"Ġentirely":10407,"IntegrationTests":10408,"ĠWriter":10409,"ĠGitHub":10410,"Externalize":10411,"080235":10412,"avorite":10413,"created":10414,"KrollRuntimeThread":10415,"Ġutili":10416,"DATA":10417,"ĠUTF":10418,"Ġmouse":10419,"<>()":10420,"Ġbenefit":10421,"Ġswimlane":10422,"ĠPaxos":10423,"100094000":10424,"\"},":10425,"/<":10426,"/*.":10427,"055":10428,"436":10429,"544":10430,"599":10431,"520":10432,"657":10433,"729":10434,"707":10435,"7343":10436,"984":10437,"Bucket":10438,"Cert":10439,"Fragment":10440,"Go":10441,"LV":10442,"License":10443,"Me":10444,"Min":10445,"Mark":10446,"NT":10447,"Panel":10448,"Phase":10449,"Such":10450,"Tap":10451,"TAB":10452,"afa":10453,"built":10454,"cap":10455,"camp":10456,"dt":10457,"kernel":10458,"large":10459,"mer":10460,"pax":10461,"prefix":10462,"qtp":10463,"sig":10464,"ĉĠ":10465,"Ġet":10466,"atom":10467,"Ġadb":10468,"Ġaware":10469,"ising":10470,"itter":10471,"ingo":10472,"ingu":10473,"Ġftp":10474,"Ġfriend":10475,"alpha":10476,"Ġws":10477,"Ġwish":10478,"Ġpaste":10479,"aspx":10480,"Ġmenus":10481,"ulating":10482,"ĠIO":10483,"ĠTLS":10484,"esta":10485,"Ġ({{":10486,"ĠAC":10487,"ĠAug":10488,"Ġstrict":10489,"Ġ\"'":10490,"ĠRuby":10491,"011":10492,"Ġgreen":10493,"ĠPos":10494,"Condor":10495,"ĠDependency":10496,"structure":10497,":///":10498,"that":10499,"there":10500,"ĠNext":10501,"ĠNone":10502,"Ġresize":10503,"Ġscr":10504,"040":10505,"048":10506,"oggle":10507,"ĠJenkins":10508,"Ġ49":10509,"okie":10510,"ĠBit":10511,"081404":10512,"ĠUN":10513,"ĠTitaniumWindows":10514,"385":10515,"OSGI":10516,"switch":10517,"cles":10518,"clusion":10519,"071202":10520,"Ġplus":10521,"\":{\"":10522,"ĠExecution":10523,"does":10524,"Ġlevels":10525,"buildFile":10526,"derr":10527,"derby":10528,"ĠProvider":10529,"ĠProperty":10530,"Ġposix":10531,"WindowProxy":10532,"Ġrecurs":10533,"Ġsuite":10534,"Ġsuffix":10535,"ContextImpl":10536,"begin":10537,"666":10538,"equence":10539,"Ġhandlers":10540,"eaders":10541,"DelegatingErrorHandling":10542,"courseid":10543,"ConfigurationElement":10544,"PageFilter":10545,"OnClose":10546,"Ġthought":10547,"PartService":10548,"incre":10549,"ĠĠĠĠĠĠĠĠĠĠĠĠĠĠĠĠĠĠĠĠĠĠĠĠĠĠĠĠĠĠĠĠĠĠĠĠĠĠĠĠĠĠĠĠĠĠĠĠĠĠĠĠĠĠĠĠĠĠĠĠĠĠĠĠĠĠĠĠĠĠĠĠĠĠĠĠĠĠĠĠĠĠĠĠĠĠĠĠĠĠĠĠĠĠĠĠ":10550,"classpath":10551,"ĠNodeJS":10552,"Ġformatter":10553,"SocketTimeoutException":10554,"Ġ../../../":10555,"Ġdesigned":10556,"Implementation":10557,"StrategyOSGI":10558,"Ġadjust":10559,"Ġrouting":10560,"Ġ4735":10561,"sqldb":10562,"Ġcovered":10563,"RegistryStrategyOSGI":10564,"ĠLogging":10565,"Modify":10566,"Ġwrites":10567,"kitchen":10568,"Ġsessions":10569,"MessagingMethodInvoker":10570,"Ġseparately":10571,"Started":10572,"ĠWorks":10573,"Ġaddressed":10574,"Ġ27644":10575,"cfht":10576,"Ġestab":10577,"Ġidentifier":10578,"byte":10579,"xxx":10580,"links":10581,"rupt":10582,"LayoutConstraint":10583,"navigator":10584,"fullscreen":10585,"Ġpartitioning":10586,"504131":10587,"PROCESS":10588,"CONFIG":10589,"Ġdestroyed":10590,"Ġassertion":10591,"ĠGeneral":10592,"Ġ8745":10593,"Ġprimary":10594,"ScrollView":10595,"PORT":10596,"Ġearly":10597,"Closed":10598,"Suite":10599,"Ġinvestig":10600,"ĠOperation":10601,"13340076":10602,"Merger":10603,"Ġtoggle":10604,"Ġnumpy":10605,"DebugUIPlugin":10606,"000439":10607,"ascades":10608,"edicated":10609,"Ġjrxml":10610,"ĠSeptember":10611,"1032504131":10612,"DelegatingErrorHandlingRunnable":10613,"MessagingMethodInvokerHelper":10614,"1334007647":10615,")*":10616,"434":10617,"437":10618,"431":10619,"451":10620,"550":10621,"829":10622,"Copy":10623,"Destination":10624,"MT":10625,"Net":10626,"Quick":10627,"Raw":10628,"SM":10629,"XY":10630,"YLE":10631,"gre":10632,"global":10633,"gtk":10634,"lation":10635,"mi":10636,"met":10637,"ruct":10638,"sq":10639,"slf":10640,"eral":10641,"invalid":10642,"ority":10643,"Ġast":10644,"Ġachie":10645,"review":10646,"Ġsaw":10647,"Ġslots":10648,"enso":10649,"Ġctrl":10650,"itut":10651,"anet":10652,"Ġfits":10653,"decor":10654,"Ġinner":10655,"une":10656,"sel":10657,"Ġdiag":10658,"Ġdraft":10659,"Ġreverse":10660,"ĠIllegal":10661,"ĠSw":10662,"ĠSite":10663,"ĠSummary":10664,"ĠSAML":10665,"idge":10666,"exit":10667,"Ġ('":10668,"Ġconstraints":10669,"Ġstyles":10670,"Ġ\"$":10671,"ĠRO":10672,"Extend":10673,"ĠPop":10674,"ĠDirect":10675,"ĠMBean":10676,"ĠManagement":10677,"ĠMedia":10678,"Ġ3506":10679,"proto":10680,"1148":10681,"angular":10682,"1258":10683,"Ġapplicable":10684,"Ġcontract":10685,"Ġreservation":10686,"ĠON":10687,"ĠOOTB":10688,"Ġwhenever":10689,"Ġjunit":10690,"0829":10691,"448":10692,"44122":10693,"393":10694,"duces":10695,"Ġautoc":10696,"STYLE":10697,"BuildContext":10698,"ĠExp":10699,"TiBase":10700,"DED":10701,"finalize":10702,"201210":10703,"Ġquiz":10704,"Adding":10705,"facebook":10706,"Ġarr":10707,"Ġstats":10708,"745":10709,"Ġbackport":10710,"Ġheading":10711,"__.":10712,"sched":10713,"area":10714,"Ġdesktop":10715,"Ġlibjvm":10716,"662":10717,"dataquality":10718,"Ġ192":10719,"Ġintended":10720,"Ġclicks":10721,"ĠDev":10722,"ĠDefinition":10723,"SAX":10724,"ĠHTCondor":10725,"ĠDMCS":10726,"Ġoperators":10727,"ĠUpgrade":10728,"while":10729,"Ġclients":10730,"Ġinvolved":10731,"Ġdetector":10732,"ĠHTTPS":10733,"author":10734,"Ġpops":10735,"Ġhello":10736,"Ġspecifically":10737,"iliation":10738,"Docker":10739,"ĠUsername":10740,"Ġbroker":10741,"ĠWebKit":10742,"Ġelapsed":10743,"Ġverified":10744,"Operator":10745,"listen":10746,"ummer":10747,"Ġaccepted":10748,"5254":10749,"50088":10750,"Ġstandards":10751,"Ġ31521":10752,"150843":10753,"Ġsignature":10754,"Ġretrieval":10755,"Reconciler":10756,"Ġentered":10757,"Ġ5475":10758,"ruit":10759,"mqtt":10760,"ĠOutput":10761,"Ġrefactored":10762,"munity":10763,"ĠâĶĤ":10764,"Flags":10765,"Created":10766,"Ġactivemq":10767,"protocol":10768,"ĠZookeeper":10769,"Ġasked":10770,"Monitoring":10771,"Ġpulling":10772,"Targets":10773,"Cleanup":10774,"Ġbounds":10775,"struction":10776,"Ġhitting":10777,"51219":10778,"ĠClassic":10779,"27625":10780,"Ġraised":10781,"ĠCFRunLoopRun":10782,"ĠCollection":10783,"semb":10784,"Ġconfirmation":10785,"Ġregarding":10786,"routing":10787,"Ġmanaging":10788,"ĠuncaughtException":10789,"ĠSpEL":10790,"~~~~~~~~":10791,"ResultsSummary":10792,"212146":10793,"ActiveMQ":10794,"ciid":10795,"serialize":10796,"onesim":10797,"Ġcombination":10798,"ĠVisualizer":10799,"Ġannoun":10800,"16777343":10801,"Missing":10802,"cism":10803,"saucy":10804,"20120418":10805,"amazonaws":10806,"201212071202":10807,"ĠEndpoint":10808,"Privileged":10809,"izontal":10810,"Ġslightly":10811,"lossary":10812,"ittercism":10813,"20121207120202":10814,"'\"":10815,"*\"":10816,"403":10817,"534":10818,"611":10819,"713":10820,"803":10821,"={":10822,"Astrometry":10823,"COM":10824,"El":10825,"Equ":10826,"Elements":10827,"Following":10828,"JAX":10829,"MM":10830,"PUT":10831,"Tuple":10832,"VALUE":10833,"Wind":10834,"WCAG":10835,"\\\",":10836,"_|":10837,"`.":10838,"baa":10839,"fn":10840,"ges":10841,"mkdir":10842,"oint":10843,"ograph":10844,"tags":10845,"uing":10846,"||":10847,"ĠKey":10848,"Ġsl":10849,"Ġsvn":10850,"ene":10851,"Ġcar":10852,"isation":10853,"Ġfac":10854,"Ġfaster":10855,"arm":10856,"Ġping":10857,"Ġpaused":10858,"Ġpdf":10859,"liant":10860,"Ġmvn":10861,"Ġmanip":10862,"Ġanonymous":10863,"separ":10864,"Ġdi":10865,"Ġdot":10866,"Ġduration":10867,"Ġdedicated":10868,"Ġreply":10869,"urning":10870,"ĠSecond":10871,"Ġhis":10872,"exists":10873,"abet":10874,"icate":10875,"ĠAMI":10876,"igin":10877,"eman":10878,"Ġdelay":10879,"Ġruby":10880,"oded":10881,"ĠRule":10882,"apk":10883,"ellow":10884,"Ġ'\\":10885,"ableView":10886,"append":10887,"ĠMatch":10888,"Ġ35":10889,"getBuildPath":10890,"ndo":10891,"ĠĠĠĠĠĠĠĠĠĠĠĠĠĠĠĠĠĠĠĠĠĠĠ":10892,"Ġvolumes":10893,"ĠFull":10894,"ĠFurther":10895,"rypt":10896,"1845":10897,"Images":10898,"Ġschedulers":10899,"165829":10900,"ĠJAVA":10901,"ĠTicket":10902,"phere":10903,"phabet":10904,"275950":10905,"0000000000":10906,"387":10907,"Ġuninstall":10908,"ĠInfo":10909,"testGet":10910,"RunAfter":10911,"Ġplanning":10912,"3486":10913,"MessageChannel":10914,"Ġspeed":10915,"ccc":10916,"489":10917,"596":10918,"ĠReact":10919,"astrometry":10920,"Ġ+----------------":10921,"Compress":10922,"Ġattemp":10923,"Ġ>=":10924,"BeanSerializer":10925,"ListenerList":10926,"scroll":10927,"ostream":10928,"Ġoverall":10929,"Ġoverlay":10930,"Ġoverlap":10931,"Ġoverwritten":10932,"Ġwrapped":10933,"669":10934,"Ġends":10935,"ifiers":10936,"ModuleDeployment":10937,"ĠQA":10938,"ConnectionHandler":10939,"ĠApply":10940,"Ġshape":10941,"openEditor":10942,"HttpURLConnection":10943,"Ġ20140909":10944,"Ġaccessed":10945,"WebResource":10946,"Ġ17501":10947,"PartStack":10948,"BundleContextImpl":10949,"Objects":10950,"Ġ13305":10951,"rench":10952,"autoc":10953,"baseHierarchy":10954,"ĠClicking":10955,"Ġclar":10956,"Ġobserved":10957,"Ġaccur":10958,"GetDataBuilderImpl":10959,"sourceforge":10960,"AsyncBlobStore":10961,"ĠbaseHierarchy":10962,"Oracle":10963,"compiler":10964,"Ġplaceholder":10965,"FIX":10966,"ĠUpdated":10967,"Ġ31519":10968,"BlobToObject":10969,"27216":10970,"Validate":10971,"Compiler":10972,"ĠCommands":10973,"Ġ15707":10974,"objects":10975,"outputrenderers":10976,"XmlApplicationContext":10977,"Ġaggregated":10978,"ependencies":10979,"zero":10980,"ygon":10981,"Attribute":10982,"Ġrendered":10983,"Ġredund":10984,"ĠTabGroup":10985,"ĠWrite":10986,"Ġwords":10987,"Ġpriority":10988,"ĠRefactor":10989,"Customer":10990,"Ġincrease":10991,"####":10992,"Ġabstraction":10993,"Ġbusiness":10994,"Region":10995,"recovery":10996,"Ġinvestigation":10997,"aaaaaaaaaaaaaaaa":10998,"ĠLibrary":10999,"DHAVE":11000,"MoreExecutors":11001,"compatible":11002,"ĠInverseOffer":11003,"Finish":11004,"Throwable":11005,"ĠAmazon":11006,"ĠSWIG":11007,"ExamplesTest":11008,"AbstractNewProjectWizard":11009,"WorkflowInterceptor":11010,"2759502016":11011,"Ġattemping":11012,"/]":11013,"058":11014,"337":11015,"421":11016,"620":11017,"807":11018,"82679":11019,">&":11020,"BO":11021,"Btn":11022,"Category":11023,"GR":11024,"Jetty":11025,"JAVA":11026,"MK":11027,"Mult":11028,"Menu":11029,"Non":11030,"Nested":11031,"Own":11032,"PRI":11033,"Sy":11034,"Src":11035,"Termin":11036,"\\*":11037,"dalvikvm":11038,"green":11039,"kl":11040,"pex":11041,"uate":11042,"vE":11043,"wd":11044,"Ġ66":11045,"ĠKeeper":11046,"Ġubuntu":11047,"ering":11048,"inct":11049,"atur":11050,"ital":11051,"rough":11052,"Ġfe":11053,"Ġfam":11054,"Ġworth":11055,"avy":11056,"Ġband":11057,"Ġbrowse":11058,"Ġintercept":11059,"Ġincomplete":11060,"aservice":11061,"Ġmarker":11062,"sts":11063,"Ġanalys":11064,"Ġdiv":11065,"changed":11066,"ĠTR":11067,"ĠSecurity":11068,"cks":11069,"Ġhyper":11070,"Ġ1352":11071,"Ġ(__":11072,"velocity":11073,"Ġconsequence":11074,"email":11075,"ĠRename":11076,"iform":11077,"Ġ''":11078,"Ġ'--":11079,"rammar":11080,"InView":11081,"ĠDuring":11082,"ĠMis":11083,"observer":11084,"getBean":11085,"indic":11086,"codec":11087,"forward":11088,"ĠFoo":11089,"intent":11090,"ĠStr":11091,"1376":11092,"ĠEst":11093,"ĠEnsure":11094,"ĠNative":11095,"ĠNOP":11096,"ĠThus":11097,"Ġleaving":11098,"ROID":11099,"RODS":11100,"ERM":11101,"Ġuseless":11102,"380":11103,"381":11104,"createPart":11105,"997":11106,"Ġenv":11107,"3657":11108,"archive":11109,"ĠProt":11110,"640":11111,"ringe":11112,"Ġstatistic":11113,"aks":11114,"Ġgenerator":11115,"viders":11116,"840":11117,"Ġsubmissions":11118,"Keys":11119,"Repro":11120,"sendMessage":11121,"Ġ20140626":11122,"DataSource":11123,"InvocationHandler":11124,"ymap":11125,"\"><":11126,"Ġkeyword":11127,"ometimes":11128,"ticket":11129,"Ġtopic":11130,"Ġordering":11131,"Ġmodes":11132,"ĠAnother":11133,"JSParser":11134,"1003":11135,"20140829":11136,"Ġregistering":11137,"ĠURLs":11138,"Outbound":11139,"ĠUnknown":11140,"Ġexpir":11141,"Kitchen":11142,"Intent":11143,"applications":11144,"FieldEditor":11145,"egin":11146,"Ġassignments":11147,"Ġ`/":11148,"Modes":11149,"Ġmodels":11150,"ĠRESTful":11151,"Ġreasonable":11152,"methods":11153,"lifecycle":11154,"Ġtransports":11155,"Ġgreater":11156,"ĠIPAC":11157,"Ġ15709":11158,"SWTException":11159,"timj":11160,"Ġdestination":11161,"Ġdiscussions":11162,"BambooFreemarkerManager":11163,"Left":11164,"Ġaffects":11165,"Ġsorted":11166,"Bytes":11167,"ĠSkipped":11168,"Assertion":11169,"jaxws":11170,"Ġasking":11171,"Ġeffects":11172,"results":11173,"mediate":11174,"SchedulerFailover":11175,"Ġexplan":11176,"SERT":11177,"32907":11178,"gnl":11179,"ĠEnterprise":11180,"Ġ30229":11181,"Ġmultipart":11182,"OptionsMetadata":11183,"Mouse":11184,"BackgroundColor":11185,"busy":11186,"Ġtranslations":11187,"ĠAborted":11188,"mongodb":11189,"Ġ(!)":11190,"CamelContext":11191,"Bitmap":11192,"Router":11193,"ĠDRP":11194,"jasmine":11195,"Ġacknowled":11196,"eprecate":11197,"000000019856":11198,"inguish":11199,"selves":11200,"onesimulator":11201,"\\\",\\\"":11202,"184521":11203,"ĠKeeperErrorCode":11204,"InViewFilter":11205,"20140829184521":11206,"\"],":11207,"%;":11208,"(/":11209,")'":11210,")');":11211,"-)":11212,"/,":11213,"358":11214,"416":11215,"5000":11216,"613":11217,"604":11218,"688":11219,"712":11220,"817":11221,"=(":11222,"Binding":11223,"Cal":11224,"Caps":11225,"Cacher":11226,"EQ":11227,"Features":11228,"IU":11229,"MENT":11230,"Ns":11231,"Os":11232,"RES":11233,"Reregister":11234,"Site":11235,"Try":11236,"Watcher":11237,"aul":11238,"both":11239,"cron":11240,"cached":11241,"crammd":11242,"first":11243,"lr":11244,"persist":11245,"qli":11246,"split":11247,"take":11248,"twe":11249,"zilla":11250,"Ġess":11251,"instr":11252,"Ġap":11253,"Ġsus":11254,"Ġsqu":11255,"issu":11256,"Ġfactor":11257,"Ġfair":11258,"Ġwp":11259,"deb":11260,"Ġbabili":11261,"Ġbias":11262,"Ġpref":11263,"Ġinject":11264,"uller":11265,"ĠTyp":11266,"hoc":11267,"ĠSalesforce":11268,"ads":11269,"ushing":11270,"Ġhist":11271,"external":11272,"existing":11273,"abe":11274,"ĠAU":11275,"Ġprox":11276,"Ġconven":11277,"ĠCLO":11278,"Ġstamp":11279,"Ġstuck":11280,"ilent":11281,"apns":11282,"Ġ'<":11283,"Ġgalaxy":11284,"ildcard":11285,"Ġalphabet":11286,"Inject":11287,"Include":11288,"ĠDuration":11289,"Stub":11290,"procs":11291,"getConnection":11292,"ĠWin":11293,"ĠWidget":11294,"ĠĠĠĠĠĠĠĠĠĠĠĠĠĠĠĠĠĠĠĠĠĠĠĠ":11295,"ĠFI":11296,"1222":11297,"Ġ=================================":11298,"converter":11299,"ĠStatistics":11300,"1435":11301,"ailability":11302,"ĠNexus":11303,"uppet":11304,"1812":11305,"ĠLDM":11306,"ĠLicense":11307,"Ġlearn":11308,"551":11309,"5544":11310,"ĠJK":11311,"Ġjump":11312,"Ġ<!--":11313,"organization":11314,"064":11315,"Ġchat":11316,"AbstractResource":11317,"ĠUDI":11318,"','":11319,"446":11320,"395":11321,"EventOperation":11322,"279":11323,"duit":11324,"388":11325,"Ġserve":11326,"Ġservlet":11327,"createImageView":11328,"createTextField":11329,"Ġplane":11330,"trac":11331,"MessageDialog":11332,"enchmark":11333,"ĠExport":11334,"4822":11335,"Compart":11336,"Complete":11337,"adding":11338,"2010":11339,"workbench":11340,"DefaultMBeanServer":11341,"Ġheap":11342,"Ġ@@":11343,"ools":11344,"___":11345,"scorm":11346,"scheduling":11347,"Ġkeeps":11348,"Ġdeployments":11349,"backbone":11350,"Ġavd":11351,"Ġago":11352,"670":11353,"hemeral":11354,"Ġsubset":11355,"locks":11356,"ĠAdditional":11357,"Ġassumes":11358,"HttpMethod":11359,"curial":11360,"SCore":11361,"vironments":11362,"Ġcompared":11363,"ResourceIT":11364,"Ġdistort":11365,"PartListenerList":11366,"BundleCacher":11367,"Helvet":11368,"ĠdbName":11369,"Envelope":11370,"callSuper":11371,"Ġgray":11372,"ĠChild":11373,"ExecutionManagerImpl":11374,"Submit":11375,"Ġ30234":11376,"displayCaps":11377,"RepositoryView":11378,"ĠUnhandled":11379,"SQLite":11380,"ĠPlace":11381,"ĠUserCgroupIsolatorTest":11382,"Ġrestarted":11383,"Ġdescriptions":11384,"ĠButler":11385,"Ġpresented":11386,"DeploymentIntegrationTests":11387,"cfg":11388,"ĠIntegrity":11389,"threads":11390,"BeanDefinitionParser":11391,"SessionInViewFilter":11392,"Compile":11393,"Recogn":11394,"ributedString":11395,"installed":11396,"Ġ26212":11397,"Ġattachments":11398,"ĠOutline":11399,"Ġ21053":11400,"ĠImageView":11401,"Ġquotes":11402,"pressed":11403,"ĠMapKit":11404,"Ġideal":11405,"Ġfreeze":11406,"ĠShutdown":11407,"Ġextended":11408,"ĠDocumentation":11409,"Ġ27642":11410,"Ġ27645":11411,"Ġraise":11412,"cludes":11413,"4066":11414,"Ġcorrections":11415,"Ġexperiment":11416,"Ġcertificates":11417,"pago":11418,"reconcile":11419,"Ġ30285":11420,"ĠCriteria":11421,"ExternalResource":11422,"Loaded":11423,"private":11424,"Ġpresence":11425,"Packaging":11426,"bindings":11427,"Distro":11428,"JOB":11429,"ĠInitializing":11430,"Ġrotate":11431,"Ġinstantiate":11432,"LoginFilter":11433,"Ġintermittently":11434,"SimpleMessageListenerContainer":11435,"PersistentVolume":11436,"Ġalternative":11437,"defineClass":11438,"TitaniumUpdatePage":11439,"________________":11440,"Ġsituation":11441,"Ġinherit":11442,"Ġencrypted":11443,"Ġcoordinate":11444,"Ġcandidate":11445,"Ġfrequency":11446,"Ġmonth":11447,"etaserv":11448,"Ġrefreshed":11449,"SpringXDException":11450,"ĠCluster":11451,"20110210":11452,"launchConfigurations":11453,"Windo":11454,"Compartment":11455,"DefaultMBeanServerInterceptor":11456,"Helvetica":11457,"428":11458,"612":11459,"623":11460,"755":11461,"747":11462,"811":11463,"809":11464,"904":11465,"Acc":11466,"Accept":11467,"Bal":11468,"Buf":11469,"CD":11470,"Cl":11471,"Car":11472,"DA":11473,"FITS":11474,"Gant":11475,"JST":11476,"Kill":11477,"Lane":11478,"Max":11479,"Rabbit":11480,"UJ":11481,"Vl":11482,"aD":11483,"coverage":11484,"di":11485,"gcc":11486,"glossary":11487,"hes":11488,"ipped":11489,"kagrawal":11490,"mime":11491,"mirror":11492,"plot":11493,"sur":11494,"snapshot":11495,"wdb":11496,"xc":11497,"ying":11498,"}.":11499,"Ġ\\\\":11500,"inning":11501,"esc":11502,"Ġado":11503,"reduce":11504,"Ġsolver":11505,"Ġsleep":11506,"ĠcCXF":11507,"Ġwsdl":11508,"Ġinverse":11509,"Ġmut":11510,"Ġmill":11511,"Ġmedian":11512,"hooks":11513,"ĠSame":11514,"Ġ140":11515,"abc":11516,"Ġ229":11517,"Ġ($":11518,"ĠAUR":11519,"ĠAstrometry":11520,"Ġbeyond":11521,"Ġconcurrent":11522,"plist":11523,"ĠClo":11524,"ĠCOM":11525,"ĠCModel":11526,"ĠCtrl":11527,"Ġstates":11528,"uplication":11529,"ĠRob":11530,"ĠRSS":11531,"Ġcomposite":11532,"actuate":11533,"Ġ'+":11534,"Ġgain":11535,"Ġgone":11536,"rich":11537,"ĠPUT":11538,"Ġexer":11539,"Ġalter":11540,"Ġalmost":11541,"ĠDispatch":11542,"ĠMaps":11543,"ĠMock":11544,"romise":11545,"Stop":11546,"ndic":11547,"ĠWorld":11548,"Ġefficient":11549,"underscore":11550,"izers":11551,"Ġweight":11552,"Ġappc":11553,"ĠStandard":11554,"1488":11555,"14003":11556,"Received":11557,"Rejected":11558,"Required":11559,"ĠNO":11560,"Ġscatter":11561,"ĠOptions":11562,"ĠJan":11563,"Ġ42":11564,"Ġ401":11565,"():":11566,"Ġbuildbot":11567,"ĠGS":11568,"ĠGNU":11569,"564":11570,"ĠInit":11571,"073":11572,"075544":11573,"MessageReceiver":11574,"ipment":11575,"doBuild":11576,"doPrivileged":11577,"482":11578,"791":11579,"ĠReason":11580,"531":11581,"ĠdataId":11582,"Ġhope":11583,"ledge":11584,"DefaultSingleton":11585,"DefaultCamelContext":11586,"NativeConstructorAccessorImpl":11587,"ashes":11588,"controllers":11589,"BeanRegistry":11590,"ĠItem":11591,"Ġprepare":11592,"Ġspecs":11593,"LETE":11594,"Ġroll":11595,"672":11596,"hemera":11597,"Ġsubmitted":11598,"Ġ20140929":11599,"ATCH":11600,"ĠDevelop":11601,"share":11602,"SCRI":11603,"deps":11604,"ITH":11605,"Ġaccessibility":11606,"683":11607,"ĠAuto":11608,"Already":11609,"Ġ],":11610,"Simp":11611,"ĠComplete":11612,"++.":11613,"++++":11614,"Ġquerying":11615,"Ġkaraf":11616,"Ġoutputs":11617,"Ġtooling":11618,"Ġwebsite":11619,"Ġgrace":11620,"subprocess":11621,"clear":11622,"ĠHTTPClient":11623,"Ġ27242":11624,"Ġ20150124":11625,"Ġwizards":11626,"Ġformats":11627,"disable":11628,"olutions":11629,"ĠLook":11630,"ecessarily":11631,"Ġedits":11632,"Intro":11633,"NSLayoutConstraint":11634,"ĠWhere":11635,"ORDER":11636,"MODE":11637,"fdc":11638,"Ġexecutable":11639,"ĠSimilar":11640,"psf":11641,"ĠPerhaps":11642,"ĠIntegrate":11643,"ĠDeployer":11644,"frm":11645,"15065":11646,"socketRead":11647,"targets":11648,"ĠFailures":11649,"Ġbranches":11650,"latitude":11651,"AWAIT":11652,"Ġcommented":11653,"educe":11654,"AlloyTemplate":11655,"MasterDetails":11656,"Ġmeetings":11657,"Ġignores":11658,"Ġ~/":11659,"brains":11660,"Ġiterate":11661,"Ġeffectively":11662,"dependency":11663,"ĠFinish":11664,"PRODU":11665,"activemq":11666,"Ġ30227":11667,"ĠDistribute":11668,"Ġserialization":11669,"Ġconstructors":11670,"ublesho":11671,"Assist":11672,"authenticatee":11673,"innerRun":11674,"Ġevolution":11675,"Blueprint":11676,"Automatically":11677,"Updates":11678,"Ġcaught":11679,"Ġenhance":11680,"FetcherCache":11681,"ĠIgnoring":11682,"ĠGraphics":11683,"jetbrains":11684,"umbnail":11685,"atomic":11686,"kitchensink":11687,"TiBaseActivity":11688,"CompressingFilter":11689,"Ġexplanation":11690,"pagoBI":11691,"CompartmentLane":11692,"ĠAURA":11693,"DefaultSingletonBeanRegistry":11694,"MasterDetailsPage":11695,"%)":11696,"-[":11697,".\\":11698,".).":11699,"/@":11700,"335":11701,"624":11702,"603":11703,"717":11704,"787":11705,"886":11706,"927":11707,"936":11708,"989":11709,"?\"":11710,"AY":11711,"But":11712,"Boss":11713,"Begin":11714,"Cr":11715,"Cancel":11716,"FE":11717,"Focus":11718,"Geom":11719,"IW":11720,"JSS":11721,"Mqtt":11722,"PAR":11723,"SV":11724,"SOME":11725,"Sandbox":11726,"]$":11727,"big":11728,"cing":11729,"hi":11730,"jj":11731,"migr":11732,"ping":11733,"pump":11734,"tM":11735,"tip":11736,"ua":11737,"uu":11738,"vI":11739,"vance":11740,"Ġâ":11741,"inv":11742,"Ġamong":11743,"rele":11744,"rox":11745,"rote":11746,"animation":11747,"Ġfour":11748,"Ġwatcher":11749,"Ġpure":11750,"unth":11751,"Ġmapped":11752,"ulled":11753,"stage":11754,"javac":11755,"selection":11756,"Ġdhyde":11757,"Ġrevisit":11758,"Ġredesign":11759,"urator":11760,"adb":11761,"estr":11762,"Ġhor":11763,"009":11764,"verify":11765,"imize":11766,"abstract":11767,"icol":11768,"Ġproof":11769,"vict":11770,"ĠRoot":11771,"quiet":11772,"Ġls":11773,"Ġlay":11774,"Ġliter":11775,"ĠDrop":11776,"ĠMark":11777,"ĠĠĠĠĠĠĠĠĠĠĠĠĠĠĠĠĠĠĠĠĠĠĠĠĠĠĠĠĠĠĠ":11778,"forEach":11779,"ĠForked":11780,"cond":11781,"construct":11782,"1333":11783,"Ġupstream":11784,"libevent":11785,"Ġscisql":11786,"ĠLet":11787,"ĠOptim":11788,"5555":11789,"Ġjetty":11790,"ĠTiSDK":11791,"AbstractNio":11792,"ĠHit":11793,"ĠUS":11794,"ĠUnder":11795,"4444":11796,"394":11797,"EventRun":11798,"omez":11799,"Ġlogon":11800,"382":11801,"Ġunres":11802,"Ġ201508":11803,"createTabGroup":11804,"ystream":11805,"ĠInclude":11806,"cribe":11807,"MessageProducer":11808,"Ġspreadsheet":11809,"363":11810,"logies":11811,"processNext":11812,"ynonym":11813,"Ġsound":11814,"866":11815,"37993":11816,"ĠRepro":11817,"AccessController":11818,"TitaniumStudio":11819,"Ġ18130":11820,"765":11821,"Ġrequiring":11822,"ĠVer":11823,"Ġbackwards":11824,"Ġcheckout":11825,"Ġoverl":11826,"Ġlibdispatch":11827,"talendforge":11828,"45384":11829,"Ġreproduced":11830,"ChannelException":11831,"fileMerger":11832,"Ġtransformation":11833,"Https":11834,"ishapelet":11835,"Ġ20140828":11836,"Ġdependent":11837,"Ġscripting":11838,"ĠNoNode":11839,"Ġ91":11840,"APNs":11841,"ĠProjects":11842,"==========":11843,"ProjectBuilder":11844,"ĠUpload":11845,"Similar":11846,"subscribe":11847,"ĠAnaly":11848,"2001":11849,"ĠYUI":11850,"Ġzoom":11851,"1008":11852,"Ġpopulated":11853,"ĠLooks":11854,"Ġcharset":11855,"Ifx":11856,"mpty":11857,"Ġ****":11858,"preferences":11859,"channels":11860,"egacy":11861,"Ġknowledge":11862,"listView":11863,"ReflectiveCallable":11864,"ĠsessionId":11865,"fireEvent":11866,"UserNotification":11867,"QueryAction":11868,"mulesource":11869,"ĠIDs":11870,"lesson":11871,"reports":11872,"ĠPermission":11873,"lified":11874,"visioning":11875,"Observer":11876,"Ġputting":11877,"Ġgrep":11878,"Ġ5474":11879,"OperationHelper":11880,"LaunchConfigurationTabGroup":11881,"MesosTest":11882,"Restart":11883,"Ġ13309":11884,"Ġdecided":11885,"Ġ21055":11886,"Ġ21059":11887,"Initializer":11888,"generated":11889,"Functions":11890,"Ġactivated":11891,"GitOperationHelper":11892,"ĠEvents":11893,"1211906":11894,"Visual":11895,"requency":11896,"<<<<":11897,"Ġleads":11898,"ĠRabbitMQ":11899,"TiUIImageView":11900,"ZNSt":11901,"holders":11902,"ĠPoint":11903,"multishapelet":11904,"liminary":11905,"MYD":11906,"MYI":11907,"Ġoverridden":11908,"ikunth":11909,"jruby":11910,"FetchConnection":11911,"AuthorizationTest":11912,"20121018":11913,"Ġdescribing":11914,"arbage":11915,"ĠNeue":11916,"ProgressMonitorDialog":11917,"LightweightDecorator":11918,"AccessLogFilter":11919,"ĠQueue":11920,"Ġcontributing":11921,"GenKey":11922,"Ġrenamed":11923,"Ġhalf":11924,"ProtectionDomain":11925,"ĠDirectory":11926,"RunAfters":11927,"Ġredundant":11928,"Owned":11929,"Ġfairly":11930,"Ġdistortion":11931,"RejectedAPNs":11932,"ĠGSEventRun":11933,"ubleshoot":11934,"ĠGraphicsServices":11935,"RejectedAPNsListener":11936,")/":11937,"459":11938,"513":11939,"547":11940,"536":11941,"617":11942,"689":11943,"750":11944,"734":11945,"844":11946,"917":11947,"977":11948,"Boot":11949,"Board":11950,"Cursor":11951,"Dump":11952,"EVENT":11953,"JC":11954,"Learn":11955,"May":11956,"MULE":11957,"ORI":11958,"Pipe":11959,"POST":11960,"Should":11961,"Tidy":11962,"UAL":11963,"WD":11964,"WN":11965,"WP":11966,"ajax":11967,"bg":11968,"cert":11969,"destroy":11970,"ey":11971,"gather":11972,"gemfire":11973,"mber":11974,"nom":11975,"normal":11976,"san":11977,"tis":11978,"tig":11979,"your":11980,"};":11981,"Ġ88":11982,"erver":11983,"instrument":11984,"Ġtalend":11985,"Ġtdq":11986,"atives":11987,"Ġamp":11988,"Ġaptana":11989,"heap":11990,"rename":11991,"lend":11992,"Ġcle":11993,"Ġcms":11994,"ister":11995,"animate":11996,"inger":11997,"Ġfast":11998,"Ġwor":11999,"Ġwent":12000,"Ġwide":12001,"avis":12002,"cef":12003,"Ġmaps":12004,"ulations":12005,"Ġodd":12006,"omas":12007,"Ġreli":12008,"chris":12009,"ĠTUJ":12010,"Ġ118":12011,"imension":12012,"Ġprovenance":12013,"ĠClear":12014,"ĠCascades":12015,"Ġstub":12016,"Ġ\"[":12017,"Ġrisk":12018,"oreograph":12019,"010":12020,"015":12021,"rice":12022,"ĠPAS":12023,"ĠPAR":12024,"ĠMB":12025,"ĠMo":12026,"ĠMer":12027,"ĠMDM":12028,"Ġ33":12029,"Ġ34":12030,"Ġ300":12031,"assist":12032,"Ġaspect":12033,"program":12034,"opic":12035,"ĠWinter":12036,"ĠEvery":12037,"Contacts":12038,"ĠLD":12039,"ĠLike":12040,"0459":12041,"Ġjms":12042,"Ġjenkins":12043,"ĠHyper":12044,"INS":12045,"Ġunavailable":12046,"5899":12047,"991":12048,"0204":12049,"\":[":12050,"Ġlife":12051,"ĠExisting":12052,"ĠĠĉĠ":12053,"594":12054,"ignore":12055,"Compound":12056,"533":12057,"ĠProgram":12058,"ificate":12059,"ensure":12060,"ĠĠĠĠĠĠĠĠĠĠĠĠĠĠĠĠĠĠĠĠĠĠĠĠĠĠĠĠĠĠĠĠĠĠĠ":12061,"3029":12062,"langu":12063,"Ġarri":12064,"('#":12065,"760":12066,"Ġbacked":12067,"Ġbacklog":12068,"posing":12069,"494":12070,"ARD":12071,"setBackgroundColor":12072,"545":12073,"667":12074,"6666":12075,"Ġthemselves":12076,"StreamDeploymentIntegrationTests":12077,"ausing":12078,"formatter":12079,"Ġ65":12080,"Ġcontained":12081,"maintenance":12082,"Ġ20140714":12083,"Ġtableview":12084,"ĠDefine":12085,"Ġids":12086,"curren":12087,"Ġwhereas":12088,"missing":12089,"venv":12090,"Ġdifferences":12091,"ĠImages":12092,"Ġunderne":12093,"ĠFormat":12094,"Ġdialogue":12095,"Ġvalidator":12096,"Ġvalidated":12097,"ClientCnxn":12098,"Ġ95":12099,"fca":12100,"ContentType":12101,"Forced":12102,"Ġrestored":12103,"Ġproblematic":12104,"deployed":12105,"entially":12106,"Ġcompletes":12107,"Ġaccom":12108,"textAlign":12109,"Ġlatitude":12110,"Setting":12111,"Ġ27241":12112,"Statements":12113,"LocalFile":12114,"ĠDouble":12115,"ĠDoxygen":12116,"egomez":12117,"slaveId":12118,"Ġchooser":12119,"ĠTrue":12120,"Ġ15089":12121,"Ġmostly":12122,"Ġqueued":12123,"Ġboxes":12124,"enterprise":12125,"Ġnetworking":12126,"Ġgrey":12127,"Ġentering":12128,"Ġdestruct":12129,"Ġcapacity":12130,"Ġblue":12131,"ocks":12132,"IOException":12133,"ĠREPRODU":12134,"Grad":12135,"Blocking":12136,"InterceptingMessageProcessor":12137,"Ġcaptured":12138,"Ġlocked":12139,"Ġ20150206":12140,"Ġlicens":12141,"Ġipad":12142,"cluded":12143,"going":12144,"Ġexperi":12145,"Ġpurposes":12146,"Ġreplacing":12147,"ĠTextField":12148,"ĠCCB":12149,"graphics":12150,"Ġinserted":12151,"ĠDetected":12152,"Ġbrings":12153,"centos":12154,"Ġexpanded":12155,"Specific":12156,"StorageProvider":12157,"exports":12158,"InvokeMethod":12159,"Ġresponses":12160,"Ġdisappears":12161,"Ġ24590":12162,"Ġ24593":12163,"Ġrecommended":12164,"CKER":12165,"ĠReturn":12166,"chunks":12167,"ĠAssignees":12168,"terminal":12169,"ĠOtherwise":12170,"tracker":12171,"Ġpairs":12172,"covery":12173,"Ġyears":12174,"Ġtechnology":12175,"Ġdenied":12176,"Sky":12177,"Ġsemantics":12178,"Collector":12179,"variable":12180,"Ġestablish":12181,"ClosedChannelException":12182,"Ġdiagram":12183,"Ġfeel":12184,"Ġfamili":12185,"Ġanalyses":12186,"Ġsuspect":12187,"Ġ=================================================================":12188,"RepositoryViewService":12189,"ORIZ":12190,"oreographer":12191,"Ġunderneath":12192,"057":12193,"338":12194,"356":12195,"379":12196,"538":12197,"629":12198,"725":12199,"70122":12200,"AF":12201,"Audio":12202,"Built":12203,"Choose":12204,"During":12205,"Hi":12206,"Hierarchical":12207,"Ip":12208,"LOST":12209,"MCE":12210,"MAX":12211,"Metric":12212,"Named":12213,"Ok":12214,"Payload":12215,"QS":12216,"QVGA":12217,"Sequence":12218,"Unt":12219,"Ubi":12220,"Var":12221,"WM":12222,"]=":12223,"bcc":12224,"banner":12225,"dde":12226,"dnd":12227,"disp":12228,"dsl":12229,"echo":12230,"eups":12231,"frame":12232,"hash":12233,"history":12234,"iating":12235,"ka":12236,"mZ":12237,"ming":12238,"mch":12239,"pite":12240,"templates":12241,"world":12242,"watcher":12243,"xv":12244,"yde":12245,"yquery":12246,"zk":12247,"Ġ----------":12248,"erber":12249,"atas":12250,"reme":12251,"revocable":12252,"Ġsolutions":12253,"Ġcast":12254,"Ġclang":12255,"Ġfootprint":12256,"Ġfilled":12257,"arant":12258,"Ġpipel":12259,"Ġinspect":12260,"Ġmessaging":12261,"Ġmatrix":12262,"strict":12263,"amine":12264,"Ġanaconda":12265,"Ġreve":12266,"Ġreject":12267,"Ġreach":12268,"Ġrelying":12269,"ĠTotal":12270,"adha":12271,"0018":12272,"imit":12273,"abor":12274,"umably":12275,"ĠCoverage":12276,"ĠChoose":12277,"ĠCREATE":12278,"Ġ\"+":12279,"quity":12280,"quick":12281,"osname":12282,"epSource":12283,"ĠPetr":12284,"Ġexposure":12285,"prere":12286,"Conscript":12287,"Conduit":12288,"Incorrect":12289,"ĠDO":12290,"ĠDoc":12291,"ĠDrag":12292,"Ġ36":12293,"1052":12294,"produce":12295,"runner":12296,"ĠWatch":12297,"forced":12298,"ĠFetch":12299,"completed":12300,"1219":12301,"extr":12302,"Ġappcelerator":12303,"UIJob":12304,"Reading":12305,"ircle":12306,"gres":12307,"readMessage":12308,"readBytes":12309,"Ġimpl":12310,"ĠOur":12311,"557":12312,"ĠJust":12313,"ĠJRE":12314,"Choreographer":12315,"acegi":12316,"Ġjmx":12317,"ĠBl":12318,"083":12319,"AbstractCollection":12320,"AbstractQueued":12321,"AbstractPlainSocketImpl":12322,"ĠHSQL":12323,"3938":12324,"EventMatching":12325,"38501":12326,"pole":12327,"Ġseries":12328,"ĠGMT":12329,"ebyquery":12330,"Ġconfigs":12331,"Ġtract":12332,"575":12333,"trust":12334,"4687":12335,"4640":12336,"processing":12337,"796":12338,"Resolve":12339,"builders":12340,"201507":12341,"868":12342,"869":12343,"ĠĠĠĠĠĠĠĠĠĠĠĠĠĠĠĠĠĠĠĠĠĠĠĠĠĠĠĠĠĠĠĠĠ":12344,"TitaniumNPM":12345,"ĠConfluence":12346,"EclipseLazy":12347,"Ġoptionally":12348,"ACSCore":12349,"Ġanywhere":12350,"Ġprefer":12351,"ServiceFactoryBean":12352,"Ġkept":12353,"Ġlocate":12354,"Ġ70":12355,"Ġ78":12356,"ĠJSCA":12357,"ConfigParser":12358,"StreamDeploymentListener":12359,"executeRepositoryWorkUnit":12360,"ProxyRepositoryFactory":12361,"Ġportion":12362,"without":12363,"Ġsharing":12364,"FileManager":12365,"FileNotFoundException":12366,"Ġtransparent":12367,"DataMapper":12368,"curl":12369,"âĢ¦":12370,"Ġemit":12371,"Ġcompliant":12372,"implRead":12373,"Ġ94":12374,"REQ":12375,"ducing":12376,"Ġconnecting":12377,"Ġdistinguish":12378,"Partition":12379,"Ġstrange":12380,"Ġreadable":12381,"UNT":12382,"++/":12383,"Ġmodification":12384,"Ġcrashed":12385,"avick":12386,"econds":12387,"ĠAnalytics":12388,"JavaRecogn":12389,"BasePack":12390,"Ġ27238":12391,"rete":12392,"Ġpopover":12393,"transformer":12394,"TextViewer":12395,"ExecutionInstance":12396,"ĠNotification":12397,"annotations":12398,"ĠSuccess":12399,"Ġadapt":12400,"Ġadvant":12401,"prepare":12402,"functional":12403,"Ġ24584":12404,"Ġhosts":12405,"Ġterminating":12406,"sdss":12407,"RedisClient":12408,"RedisTemplate":12409,"Ġfullscreen":12410,"Ġ27638":12411,"Ġplaceholders":12412,"SpringXml":12413,"Ġ15087":12414,"ReportRun":12415,"Ġ31523":12416,"Ġ31524":12417,"Ġ31520":12418,"Ġcounts":12419,"ĠListener":12420,"0000000100":12421,"Ġlimits":12422,"ĠâĢ¢":12423,"ModelPresentation":12424,"Editing":12425,"ĠJavaScriptCore":12426,"Ġreplacement":12427,"transports":12428,"fields":12429,"rupted":12430,"Ġdeclare":12431,"Ġ21057":12432,"tabGroup":12433,"MessageProcessorChain":12434,"Ġsorting":12435,"fontFamily":12436,"Ġ27436":12437,"ModalContextThread":12438,"ByName":12439,"SyncTaskExecutor":12440,"CompositeExpression":12441,"EXEC":12442,"ĠDuraStore":12443,"ReleaseNotes":12444,"Ġboards":12445,"Ġreplicated":12446,"Ġdirty":12447,"TalendJob":12448,"Ġ8746":12449,"NioClient":12450,"Ġqdis":12451,"Ġ30288":12452,"ReflectionDispatch":12453,"SecureAction":12454,"ĠbindId":12455,"Ġanalyzed":12456,"ĠActivityManager":12457,"ĠSuggested":12458,"Ġdealing":12459,"ArtifactWrapper":12460,"Ġmerging":12461,"CharBuf":12462,"Ġdrill":12463,"Ġdrwxr":12464,"Idea":12465,"Ġoverrides":12466,"deletebyquery":12467,"ÂłĠÂłĠÂłĠÂłĠ":12468,"Popover":12469,"Ġsyslog":12470,"failure":12471,"ĠCHECK":12472,".'&":12473,"Ġpolling":12474,"skip":12475,"ĠTech":12476,"Ġneither":12477,"DEFAULT":12478,"Ġsymbols":12479,"ĠFlags":12480,"ĠHandling":12481,"RIGHT":12482,"Ġaligned":12483,"UnitTestImpl":12484,"ExistsException":12485,"SQLE":12486,"DefaultSaveOrUpdate":12487,"Ġsimultaneously":12488,"DqRepositoryViewService":12489,"PREFIX":12490,"Ġindependent":12491,"Ġencaps":12492,"Ġofficial":12493,"Ġrecursive":12494,"Equals":12495,"JettyHTTP":12496,"Synd":12497,"KillTask":12498,"AlloyTemplateInstaller":12499,"FetcherCacheTest":12500,"JSSymbol":12501,"MessageProducerSupport":12502,"==========]":12503,"Ubiquity":12504,"mchadha":12505,"AbstractQueuedSynchronizer":12506,"EventMatchingMask":12507,"TitaniumNPMRelease":12508,"EclipseLazyStarter":12509,"ACSCorePlugin":12510,"JavaRecognizer":12511,"BasePackFetchConnection":12512,"DefaultSaveOrUpdateEventListener":12513,"'}},":12514,"([":12515,"(\\*":12516,".|":12517,"517":12518,"546":12519,"607":12520,"723":12521,"937":12522,"949":12523,"=#":12524,"?).":12525,"Api":12526,"BAM":12527,"Captcha":12528,"DATE":12529,"Evaluate":12530,"Fore":12531,"Final":12532,"Gallery":12533,"Hint":12534,"Hover":12535,"IL":12536,"MC":12537,"MON":12538,"Mongo":12539,"NB":12540,"OF":12541,"Our":12542,"Oss":12543,"Qd":12544,"Top":12545,"Uri":12546,"WVGA":12547,"bs":12548,"buf":12549,"elements":12550,"favorite":12551,"gmt":12552,"hino":12553,"hdpi":12554,"kone":12555,"mos":12556,"mvel":12557,"merge":12558,"nebula":12559,"oauth":12560,"ralc":12561,"sop":12562,"ufs":12563,"vs":12564,"week":12565,"yaml":12566,"zone":12567,"Ġ....":12568,"ĠKeyboard":12569,"ermine":12570,"ĠtREST":12571,"atio":12572,"reed":12573,"len":12574,"ropping":12575,"edora":12576,"Ġbenchmark":12577,"Ġins":12578,"Ġindent":12579,"una":12580,"Ġmag":12581,"Ġmdl":12582,"ulative":12583,"Ġow":12584,"ĠIAM":12585,"hose":12586,"hoSim":12587,"ĠSC":12588,"ĠSynchron":12589,"ĠSyntax":12590,"otyp":12591,"usc":12592,"Ġ1461":12593,"existent":12594,"umulative":12595,"ĠActiv":12596,"Ġprofiler":12597,"ĠCancel":12598,"ĠCalibrateTask":12599,"vial":12600,"014":12601,"quis":12602,"Ġnotified":12603,"acade":12604,"else":12605,"riever":12606,"Explorer":12607,"Ġ[\"":12608,"ĠPRO":12609,"ĠPausing":12610,"Ġexclude":12611,"ocer":12612,"ĠDynamic":12613,"ĠMain":12614,"ĠMeasure":12615,"oped":12616,"1173":12617,"ĠFind":12618,"ĠFollowing":12619,"figure":12620,"ĠEVENT":12621,"Ġresume":12622,"1801":12623,"Ġscience":12624,"ĠLine":12625,"ĠLast":12626,"043":12627,"ĠJim":12628,"234822":12629,"ĠBug":12630,"ĠBabili":12631,"Ġchapter":12632,"()\"":12633,"2874":12634,"createContents":12635,"createHTTPClient":12636,"569":12637,"998":12638,"573":12639,"576":12640,"ffdd":12641,"ipate":12642,"Building":12643,"redicate":12644,"TiHttpClient":12645,"Completed":12646,"worker":12647,"Ġresulted":12648,"Ġdescript":12649,"677":12650,"Streams":12651,"park":12652,"paring":12653,"Ġinteract":12654,"Ġinteraction":12655,"Ġ20141028":12656,"ĠSerial":12657,"ship":12658,"870":12659,"elling":12660,"Ġconsume":12661,"ITOR":12662,"Ġdialogs":12663,"Ġdifferently":12664,"Ġ17504":12665,"deployment":12666,"Ġstrateg":12667,"Ġgrouping":12668,"Ġcritical":12669,"Ġgrab":12670,"Ġgrading":12671,"Ġlatter":12672,"980":12673,"Ġtyped":12674,"Ġclause":12675,"Ġedited":12676,"Ġeverywhere":12677,"Ġvisibility":12678,"LaunchActivity":12679,"coord":12680,"ĠUnit":12681,"gorithm":12682,"CacheListener":12683,"viously":12684,"SlaveTest":12685,"Instant":12686,"repositories":12687,"Ġfocused":12688,"Ġdownloads":12689,"Ġfullname":12690,"Ġremember":12691,"Ġhardcoded":12692,"distrib":12693,"contents":12694,"Ġparticipant":12695,"Compilation":12696,"Ġ24473":12697,"1264640":12698,"Ġdecision":12699,"Initialization":12700,"Ġkeeping":12701,"Ġexpects":12702,"Ġapplying":12703,"Ġiteration":12704,"ĠRemote":12705,"Ġequipment":12706,"Ġephemeral":12707,"attery":12708,"ĠDiscus":12709,"ĠDocuments":12710,"Retrieve":12711,"Ġexplore":12712,"31190":12713,"Ġstudents":12714,"itespace":12715,"Ġ26396":12716,"Ġ26398":12717,"anizations":12718,"Cgroups":12719,"ĠColumn":12720,"Ġprovisioner":12721,"Ġ8744":12722,"Ġdiscovery":12723,"Ġshortcuts":12724,"Ġ1681264640":12725,"Ġoversubscribable":12726,"StepExecution":12727,"LiveViewer":12728,"3193029":12729,"canEdit":12730,"Ġcharts":12731,"Ġsemicol":12732,"Binder":12733,"Ġconventions":12734,"ĠtESBConsumer":12735,"guides":12736,"ĠEXPECTED":12737,"Pressed":12738,"Pressure":12739,"Impact":12740,"PhotoGallery":12741,"Ġanimated":12742,"prodinfo":12743,"inyMCE":12744,"Ġcycles":12745,"Ġpractice":12746,"slice":12747,"Position":12748,"XrdSsi":12749,"Ġunchecked":12750,"liveviewer":12751,"maybe":12752,"Ġcolour":12753,"SupervisorCacheListener":12754,"PhaseInterceptorChain":12755,"ĠPossible":12756,"Ġachieve":12757,"tweets":12758,"Ġexercise":12759,"tigress":12760,"currency":12761,"erberos":12762,"(\\*):":12763,"Foreground":12764,"ralcocer":12765,"3193029443":12766,"%\"":12767,"./":12768,"/{":12769,"419":12770,"499":12771,"430":12772,"630":12773,"635":12774,"718":12775,"708":12776,"702":12777,"806":12778,"903":12779,":-":12780,":</":12781,"ALI":12782,"Break":12783,"Bulk":12784,"Cpp":12785,"Cho":12786,"Could":12787,"DP":12788,"EF":12789,"Est":12790,"FDF":12791,"GV":12792,"Have":12793,"Hook":12794,"Icon":12795,"Mail":12796,"Msg":12797,"NIOS":12798,"TID":12799,"Xd":12800,"`,":12801,"bio":12802,"binding":12803,"cn":12804,"camera":12805,"dot":12806,"draw":12807,"drag":12808,"even":12809,"fx":12810,"fers":12811,"future":12812,"gt":12813,"hFDF":12814,"mask":12815,"messages":12816,"mvn":12817,"oct":12818,"pc":12819,"pages":12820,"qr":12821,"say":12822,"sWith":12823,"sudo":12824,"tm":12825,"then":12826,"uIW":12827,"vesta":12828,"xrd":12829,"})":12830,"Ġer":12831,"Ġ................":12832,"inue":12833,"Ġtuple":12834,"ĠtGenKey":12835,"onCreate":12836,"enh":12837,"Ġcodes":12838,"Ġcmd":12839,"ĠcJMS":12840,"ises":12841,"Ġfresh":12842,"del":12843,"decrypt":12844,"argument":12845,"Ġpause":12846,"Ġpending":12847,"asion":12848,"ety":12849,"utting":12850,"Ġduplication":12851,"Ġrevert":12852,"Ġrevis":12853,"chor":12854,"chdl":12855,"ational":12856,"ecode":12857,"ĠSpace":12858,"ĠSnipp":12859,"ĠSphinx":12860,"usive":12861,"Ġ136":12862,"006":12863,"Ġprofiling":12864,"ples":12865,"oler":12866,"Ġdemand":12867,"Ġdecor":12868,"Ġrapid":12869,"ĠRack":12870,"ĠRubles":12871,"iffer":12872,"Ġgal":12873,"Ġgadget":12874,"Ġgrammar":12875,"Ġ[==========]":12876,"ĠPassword":12877,"ĠPaul":12878,"Conversion":12879,"Infer":12880,"Insets":12881,"aniel":12882,"ĠMe":12883,"ĠMarch":12884,"Ġ31":12885,"Ġ38":12886,"Ġ3502":12887,"provision":12888,"providers":12889,"..\"":12890,"Ġ*****":12891,"running":12892,"udson":12893,"urement":12894,"ĠĠĠĠĠĠĠĠĠĠĠĠĠĠĠĠĠĠĠĠĠĠĠĠĠĠ":12895,"failed":12896,"1234":12897,"conn":12898,"Ġappeared":12899,"141812":12900,"Ġareas":12901,"Delivery":12902,"1713":12903,"upper":12904,"ĠLion":12905,"Ġimg":12906,"Ġleverage":12907,"ogram":12908,"=\".$":12909,"Ġ45":12910,"Ġjline":12911,"solete":12912,"ĠBr":12913,"ĠBrowse":12914,"ĠBlackberry":12915,"Filtered":12916,"AbstractDocument":12917,"AbstractExpression":12918,"1567":12919,"INDO":12920,"INPUT":12921,"27268":12922,"MethodInvok":12923,"ĠsetTimeout":12924,"Ġunzip":12925,"Ġ2016":12926,"createControl":12927,"createListView":12928,"createAlertDialog":12929,"565899":12930,"4700":12931,"Ġtrim":12932,"ysical":12933,"TestSuite":12934,"MessageFlow":12935,"3660":12936,"BuildResultsSummary":12937,"doCall":12938,"592":12939,"ĠReg":12940,"ListSection":12941,"Comparison":12942,"builds":12943,"Unhandled":12944,"ĠProxy":12945,"Ġhours":12946,"Ġshowed":12947,"865":12948,"HandlerWrapper":12949,"ensity":12950,"Ġquit":12951,"atester":12952,"Ġ18131":12953,"31503":12954,"ASUS":12955,"spreadsheet":12956,"ssues":12957,"Ġ!!!":12958,"ClassRule":12959,"Ġparsed":12960,"Ġround":12961,"333":12962,"TaskThread":12963,"ĠĠĉĉĠĠĉ":12964,"Ġsubtr":12965,"paration":12966,"Ġ63":12967,"Ġported":12968,"Ġshapelet":12969,"AMP":12970,"ATUS":12971,"Ġappearing":12972,"ĠtableName":12973,"ĠAltern":12974,"Ġviol":12975,"TableGenerator":12976,"RequestResponse":12977,"JobDeploymentListener":12978,"Ġcomplicated":12979,"ITAN":12980,"694":12981,"696":12982,"698":12983,"ResourceClasses":12984,"ResourceClassRule":12985,"GED":12986,"Webapp":12987,"WebComponent":12988,"Ġoccured":12989,"WithRetry":12990,"Ġcontextual":12991,"TypeInfer":12992,"ĠScope":12993,"arently":12994,"ActivityManager":12995,"subscription":12996,"Ġfinding":12997,"Ġcustomers":12998,"ĠSlaveInfo":12999,"SocketProcessor":13000,"Ġobsolete":13001,"Transition":13002,"ĠJobServer":13003,"Ġblocked":13004,"ĠDataMapper":13005,"StandardTestService":13006,"SED":13007,"pike":13008,"Fields":13009,"Ġelastic":13010,"MOD":13011,"Ġchoos":13012,"ĠInstalling":13013,"ĠTrigger":13014,"RedisMessageBus":13015,"UserCgroup":13016,"Ġmapview":13017,"jolokia":13018,"Ġ5795":13019,"contentassist":13020,"LineTask":13021,"blur":13022,"Ġfinally":13023,"Ġ509":13024,"ToolBar":13025,"Ġsuggests":13026,"Ġsuggestions":13027,"Ġ24485":13028,"Consider":13029,"Ġ15703":13030,"ruary":13031,"ĠDetail":13032,"eae":13033,"Restore":13034,"successful":13035,"Ġ13311":13036,"Ġexpecting":13037,"Ġaggregator":13038,"ĠGrade":13039,"FFaD":13040,"GROUND":13041,"RootActivity":13042,"RootFilesystem":13043,"RootResourceClasses":13044,"jaxrs":13045,"Ġcommits":13046,"Retriever":13047,"ĠMDLQA":13048,"Ġpressing":13049,">>>>":13050,"Ġosgi":13051,"Ġfinishes":13052,"ĠConnections":13053,"IOSConfiguration":13054,"Ġreplicator":13055,"required":13056,"ĠAgile":13057,"pxVl":13058,"Ġ1682874":13059,"ĠRefresh":13060,"Formatter":13061,"Ġbasis":13062,"Mojo":13063,"detection":13064,"ĠPlatforms":13065,"LettuceConnection":13066,"Abs":13067,"201506141812":13068,"ĠMany":13069,"ĠManage":13070,"Scrollable":13071,"ĠEnabled":13072,"CreationException":13073,"writing":13074,"Ġ26400":13075,"Ġhighlighting":13076,"LogMessageFatal":13077,"discuss":13078,"DefWindowProc":13079,"dispatchEventImpl":13080,"QueuedThreadPool":13081,"Ġderived":13082,"21791":13083,"Ġcandidates":13084,"Ġdescribes":13085,"preted":13086,"Ġlistening":13087,"Perspective":13088,"ERKNS":13089,"iphonesimulator":13090,"ĠKeep":13091,"ĠISR":13092,"Ġshear":13093,"889280":13094,"Ġnegative":13095,"Ġphotometry":13096,"Ġnumeric":13097,"MeasurementTask":13098,"SingleNodeStreamDeploymentIntegrationTests":13099,"vaikunth":13100,"ĠExtender":13101,"broad":13102,"Errno":13103,"1148889280":13104,"Ġarrays":13105,"BeanSerializerBase":13106,"ĠTRACE":13107,"KitchenSink":13108,"IUM":13109,"Ġproxies":13110,"ĠCLOV":13111,"Simplify":13112,"CompartmentLaneEditPart":13113,"vIxv":13114,"1333565899":13115,"LaunchConfigurationTabGroupViewer":13116,"ubleshooting":13117,"ĠLDAP":13118,"045956":13119,"ĠREPRODUCE":13120,"QdvIxv":13121,"NIOServer":13122,"hFDFFFaD":13123,"uIWid":13124,"AbstractExpressionEvaluator":13125,"MethodInvokingMessageProcessor":13126,"MessageFlowEditor":13127,"ITANIUM":13128,"TypeInferrer":13129,"RootResourceClassesRule":13130,"Ġ1682874368":13131,"20150614181235":13132,"hFDFFFaDpxVl":13133,"!\"":13134,"!)":13135,"!');":13136,")-":13137,"/**":13138,"0502":13139,"2181":13140,"336":13141,"412":13142,"424":13143,"639":13144,"628":13145,"716":13146,"753":13147,"834":13148,"805":13149,"8463":13150,"913":13151,"950":13152,"909":13153,"935":13154,"Br":13155,"Cmd":13156,"CBC":13157,"Ee":13158,"EXPECT":13159,"HIG":13160,"IM":13161,"JLine":13162,"Jmx":13163,"Long":13164,"LSE":13165,"MET":13166,"Medi":13167,"NG":13168,"NSA":13169,"Orientation":13170,"PER":13171,"Persistence":13172,"Prefix":13173,"Sdk":13174,"Samples":13175,"Splash":13176,"SpagoBI":13177,"UL":13178,"WER":13179,"WITH":13180,"WINDO":13181,"YPE":13182,"calib":13183,"dx":13184,"eff":13185,"element":13186,"fEvent":13187,"fusc":13188,"ga":13189,"gif":13190,"hns":13191,"iPad":13192,"land":13193,"lator":13194,"math":13195,"tz":13196,"tent":13197,"tizen":13198,"uk":13199,"upt":13200,"{}":13201,"Ġ99":13202,"Ġ76":13203,"Ġ84":13204,"ĠVideo":13205,"inject":13206,"oracle":13207,"onom":13208,"onfigure":13209,"atures":13210,"Ġche":13211,"Ġcoded":13212,"isolation":13213,"itable":13214,"itives":13215,"anim":13216,"Ġfd":13217,"alformed":13218,"Ġtoday":13219,"Ġbrie":13220,"Ġpersistence":13221,"Ġpower":13222,"etime":13223,"loon":13224,"loat":13225,"Ġmar":13226,"Ġmet":13227,"Ġmix":13228,"Ġopt":13229,"Ġdark":13230,"Ġrevision":13231,"Ġrejected":13232,"ĠĠĠĠĠĠĠĠĊ":13233,"ĠTod":13234,"008":13235,"0001":13236,"emf":13237,"emit":13238,"012":13239,"quant":13240,"Ġ',":13241,"Ġ[]":13242,"ĠParent":13243,"ĠPhoSim":13244,"Inner":13245,"Insert":13246,"InForeground":13247,"ĠDH":13248,"ĠDocs":13249,"ĠDOM":13250,"ĠDiagnostic":13251,"ĠDenso":13252,"anize":13253,"ĠMD":13254,"ĠMQ":13255,"ĠMS":13256,"ĠMon":13257,"ĠMETA":13258,"obufs":13259,"1126":13260,"Ġvector":13261,"izations":13262,"Ġappicon":13263,"Rebuild":13264,"Reason":13265,"ĠNon":13266,"Ġcontr":13267,"Ġdoxygen":13268,"grace":13269,"Ġscan":13270,"Ġcanvas":13271,"1618":13272,"191052":13273,"Ġjira":13274,"231435":13275,"ĠBreak":13276,"Filters":13277,"263":13278,"ERT":13279,"ĠUsed":13280,"ĠUUID":13281,"253":13282,"Ġworkers":13283,"Ġunread":13284,"Ġunrecognized":13285,"ApplicationWindow":13286,"ĠGithub":13287,"ĠGaussian":13288,"ĠGreenHopper":13289,"createPage":13290,"ĠInformation":13291,"ĠInstrument":13292,"4719":13293,"994":13294,"PIC":13295,"\":[\"":13296,"MessageHandling":13297,"anned":13298,"Ġ{{--":13299,"STR":13300,"Ġens":13301,"Ġenvironments":13302,"ouch":13303,"BuildExceptionReporter":13304,"4625":13305,"loadBeanDefinitions":13306,"doStart":13307,"doInvoke":13308,"797":13309,"798":13310,"astdev":13311,"berg":13312,"Ġ++":13313,"Ġsoap":13314,"Ġquote":13315,"AccessException":13316,"xyz":13317,"Ġrecorder":13318,"ProcessBuilder":13319,"Ġbackups":13320,"Ġwasn":13321,"495":13322,"49188":13323,"881":13324,"Ġselects":13325,"Ġselectable":13326,"ostype":13327,"setActive":13328,"Ġwrappers":13329,"notlong":13330,"StreamReading":13331,"Ġsubst":13332,"webview":13333,"ountain":13334,"Requested":13335,"Ġrefers":13336,"Ġreflected":13337,"izedDispatch":13338,"6961":13339,"ĠINF":13340,"ĠMethods":13341,"visible":13342,"Ġmismatch":13343,"9732":13344,"ObjectTo":13345,"Analytics":13346,"topic":13347,"2005":13348,"JavaFramework":13349,"columns":13350,"modal":13351,"Ġcustomized":13352,"Tables":13353,"Ġ27236":13354,"transparent":13355,"ĠChanging":13356,"Ġdiscard":13357,"961":13358,"KeyEvent":13359,"Ġaccident":13360,"Ġprotobufs":13361,"Ġdeletes":13362,"mapreduce":13363,"Ġregions":13364,"Ġbreaking":13365,"Ġthinking":13366,"Ġincorpor":13367,"Ġbrand":13368,"ĠImplementation":13369,"Origin":13370,"StartLevel":13371,"Ġ27639":13372,"endpoints":13373,"Ġ15090":13374,"Ġqueues":13375,"bci":13376,"editpart":13377,"Ġtagged":13378,"Ġdistributions":13379,"hadoopDistro":13380,"NoNode":13381,"NoSuch":13382,"Ġ13933":13383,"Ġcontinues":13384,"Ġcontinuous":13385,"Ġmoves":13386,"Ġparenthes":13387,"tech":13388,"Ġ31215":13389,"Ġ5476":13390,"ĠInstance":13391,"bbb":13392,"8081":13393,"SearchBar":13394,"IGHT":13395,"ĠâĶĶ":13396,"ĠFrameworkInfo":13397,"enario":13398,"aterial":13399,"Ġaggregation":13400,"VirtualFilterChain":13401,"Ġfreezes":13402,"Needed":13403,"Ġactivate":13404,"ĠBefore":13405,"8019":13406,"Beans":13407,"Ġswipe":13408,"Ġguarant":13409,"Ġinstrumented":13410,"ĠVMs":13411,"reporter":13412,"Ġanalyze":13413,"Redirect":13414,"ĠQuartz":13415,"lsx":13416,"FormContent":13417,"Ġevaluated":13418,"Ġprimitives":13419,"pertureFlux":13420,"Ġresponsible":13421,"findClassInternal":13422,"Ġcopies":13423,"Renderer":13424,"Rendering":13425,"records":13426,"DRF":13427,"TODO":13428,"Regex":13429,"tryOptim":13430,"ĠObserve":13431,"ĠFebruary":13432,"ĠUTC":13433,"Dura":13434,"publisher":13435,"Updating":13436,"onymized":13437,"ĠACLs":13438,"Ġdeclaration":13439,"Ġfloat":13440,"uspend":13441,"doGetBean":13442,"Ġorphaned":13443,"pkginfo":13444,"ĠExtra":13445,"UniqueVerify":13446,"gmentation":13447,"\"?>":13448,"Acceler":13449,"CustomerService":13450,"FeaturesServiceImpl":13451,"Injector":13452,"TidyValidator":13453,"Ġcleared":13454,"Ġcmsd":13455,"ĠPetravick":13456,"prerelease":13457,"Ġadvantage":13458,"Ġqdisc":13459,"MONITOR":13460,"Ġstrategies":13461,"WebappClassLoader":13462,"846338":13463,"hnson":13464,"MessageHandlingException":13465,"StreamReadingTask":13466,"tryOptimizedDispatch":13467,"MONITORING":13468,"'],":13469,"450":13470,"402":13471,"420":13472,"454":13473,"710":13474,"746":13475,"720":13476,"774":13477,"751":13478,"705":13479,"815":13480,"839":13481,"874":13482,"8000":13483,"920":13484,";}":13485,"<?":13486,"BG":13487,"BM":13488,"Cli":13489,"Caller":13490,"Don":13491,"EB":13492,"Every":13493,"EPS":13494,"Fill":13495,"Gesture":13496,"Hdfs":13497,"HDFS":13498,"Js":13499,"Kw":13500,"Management":13501,"QP":13502,"Reduce":13503,"Software":13504,"Templates":13505,"Trunk":13506,"TERM":13507,"VO":13508,"WW":13509,"aho":13510,"bor":13511,"bundles":13512,"cassandra":13513,"ece":13514,"each":13515,"fz":13516,"gp":13517,"glib":13518,"jps":13519,"jdt":13520,"ln":13521,"need":13522,"nodes":13523,"prec":13524,"pixel":13525,"rim":13526,"sax":13527,"sorter":13528,"sShell":13529,"urop":13530,"wik":13531,"xcode":13532,"yes":13533,"zh":13534,"}]":13535,"ě[":13536,"Ġug":13537,"Ġĉĉ":13538,"inferencing":13539,"Ġturns":13540,"onChild":13541,"reement":13542,"leader":13543,"Ġswit":13544,"Ġsym":13545,"ena":13546,"enant":13547,"envelope":13548,"itate":13549,"anal":13550,"Ġflick":13551,"Ġfatal":13552,"Ġfires":13553,"Ġfiber":13554,"Ġfocal":13555,"eda":13556,"Ġpay":13557,"Ġpulled":13558,"Ġind":13559,"unsigned":13560,"asically":13561,"eting":13562,"Ġmetric":13563,"Ġmatched":13564,"stat":13565,"--+":13566,"Ġdiagnostic":13567,"ĠTH":13568,"ĠTree":13569,"ĠSdss":13570,"Ġhdp":13571,"Ġ110":13572,"Ġ123":13573,"Ġ156":13574,"vers":13575,"ĠAR":13576,"ĠAJAX":13577,"Ġonline":13578,"ĠCON":13579,"Ġstderr":13580,"Ġ{},":13581,"Ġradius":13582,"ĠRCP":13583,"apis":13584,"acct":13585,"Ġ'.":13586,"Ġ'_":13587,"tting":13588,"ĠPhoto":13589,"Ġexpen":13590,"Ġexits":13591,"ctionary":13592,"Ġlose":13593,"Stud":13594,"runt":13595,"runTask":13596,"ĠWithout":13597,"fores":13598,"Ġever":13599,"extract":13600,"ubble":13601,"13291":13602,"22543":13603,"ĠETL":13604,"ĠEFD":13605,":::":13606,"Ġreserv":13607,"Deliverable":13608,"185051":13609,"Ġlearning":13610,"ĠORIG":13611,"552":13612,"Ġ400":13613,"Ġjdk":13614,"Ġnewinstall":13615,"ViewController":13616,"ĠBased":13617,"FilterAutoConfiguration":13618,"ĠTiapp":13619,"ĠTiBlob":13620,"086":13621,"AbstractPage":13622,"AbstractHandlerMethod":13623,"AbstractTextEditor":13624,"AbstractConnectionHandler":13625,"ĠHook":13626,"ĠUs":13627,"MethodAnd":13628,"246":13629,"These":13630,"ĠTitaniumKit":13631,"policy":13632,"ĠiRODS":13633,"ĠGB":13634,"ĠInvoke":13635,"RunBe":13636,"rows":13637,"0214":13638,"reset":13639,"resume":13640,"Ġreplication":13641,"ffee":13642,"STS":13643,"Ġencoded":13644,"3615":13645,"WorkbenchPreferenceDialog":13646,"logbuf":13647,"httpStream":13648,"ĠExtension":13649,"doWork":13650,"ĠRevert":13651,"achine":13652,"finite":13653,"Reservation":13654,"xmlsoap":13655,"201311":13656,"201502":13657,"ĠProbably":13658,"645":13659,"860":13660,"861":13661,"DefaultMaven":13662,"Threading":13663,"Ġrecycle":13664,"Ġrecipe":13665,"ActionBar":13666,"ActionCo":13667,"Ġhealth":13668,"ĠAndroidManifest":13669,"4931":13670,"Classic":13671,"ClassNotFoundException":13672,"Ġtied":13673,"ationship":13674,"Ġpreced":13675,"Ġviewing":13676,"Ġ168019":13677,"Maintenance":13678,"Ġlibobjc":13679,"groupId":13680,"ĠPersistentVolume":13681,"6700":13682,"ĠQo":13683,"ConnectionImpl":13684,"Ġsubscrib":13685,"webui":13686,"Ġ0808":13687,"Ġshift":13688,"ovember":13689,"TRA":13690,"FileStore":13691,"HttpInboundChannelAdapter":13692,"Ġ20140502":13693,"ĠtextAlign":13694,"ĠSerena":13695,"Ġlooked":13696,"shal":13697,"ĠAlthough":13698,"Science":13699,"8700":13700,"DelegatingSubject":13701,"tester":13702,"Ġmyjob":13703,"JobRepository":13704,"\\\\.":13705,"started":13706,"ITION":13707,"ServletInvocableHandlerMethod":13708,"ĠForeman":13709,"video":13710,"ContentStore":13711,"ResourceStatistics":13712,"Ġdistribute":13713,"Ġoccasion":13714,"PartRendering":13715,"ĠKill":13716,"NodeJS":13717,"ĠYAML":13718,"Ġindication":13719,"General":13720,"JSFileIndexingParticipant":13721,"SystemButton":13722,"Ġperforms":13723,"Ġ20150126":13724,"IndexContributor":13725,"datam":13726,"DMatrix":13727,"Ġdeveloping":13728,"ettyHttpInboundChannelAdapter":13729,"Ġrootfs":13730,"keyring":13731,"Shape":13732,"Getting":13733,"meabi":13734,"ĠModuleDeployer":13735,"Ġinputs":13736,"SDKBuildPath":13737,"restart":13738,"fds":13739,"Ġsinks":13740,"choice":13741,"Ġaddresses":13742,"Isol":13743,"MetadataConnectionUtils":13744,"HTTPConduit":13745,"writeObject":13746,"TableViewProxy":13747,"tableview":13748,"Ġbinaries":13749,"Ġ24478":13750,"Ġformer":13751,"ĠIPv":13752,"ĠContainerizer":13753,"timer":13754,"Ġ30617":13755,"Ġ30609":13756,"Ġ30615":13757,"Ġappropriately":13758,"Ġmigrated":13759,"Ġ13307":13760,"Poll":13761,"Ġarchitect":13762,"ĠexitOnClose":13763,"attached":13764,"ElementLabelProvider":13765,"Ġdrivers":13766,"ĠOrg":13767,"BuildPathIndexContributor":13768,"Ġideas":13769,"ColumnMasterDetailsPage":13770,"ĠShared":13771,"Ġeffective":13772,"Registration":13773,"ĠDELETE":13774,"Ġbadge":13775,"CompositeChange":13776,"Aggreg":13777,"Ġunderstanding":13778,"Ġfooter":13779,"Arguments":13780,"GitRepository":13781,"Ġ20150222":13782,"authenticator":13783,"Ġutilities":13784,"Visible":13785,"WriteUniqueVerify":13786,"Ġconditions":13787,"Ġ1381":13788,"Ġfitting":13789,"CONT":13790,"Ġdatasets":13791,"Ġkinds":13792,"NioEndpoint":13793,"iPhonePackaging":13794,"Ġerrone":13795,"HystrixContext":13796,"Ġcalculated":13797,"Ġcalculation":13798,"ĠParameters":13799,"Ġserialized":13800,"ĠSubmit":13801,"Ġmodifying":13802,"Ġincrement":13803,"Ġanalyzer":13804,"PlanExecutionManagerImpl":13805,"ĠGenerate":13806,"FormEditor":13807,"LazyBuildParticipant":13808,"Ġ8749":13809,"LettuceConnectionFactory":13810,"HTMLTidyValidator":13811,"Character":13812,"CommandsHelper":13813,"DropAdapter":13814,"DropTarget":13815,"Facebook":13816,"Ġsynchronous":13817,"Ġcentroid":13818,"Ġ:::::":13819,"Ġundeployed":13820,"ĠPlugins":13821,"Qua":13822,"Quota":13823,"Ġ{};":13824,"iticalmodel":13825,"ĠCentral":13826,"ĠAssignment":13827,"lapse":13828,"Ġalternate":13829,"jrxml":13830,"Ġextens":13831,"ĠTableViewRow":13832,"partitioned":13833,"------+":13834,"16772":13835,"collections":13836,"ReconcileKillTask":13837,"Ġparams":13838,"ArgsCaller":13839,"Ġadapters":13840,"DiskIndex":13841,"SecurePreferencesRoot":13842,"âĢĶâĢĶâĢĶâĢĶ":13843,"Ġplaying":13844,"DefaultMuleMessage":13845,"RKSt":13846,"Ġsecured":13847,"requirements":13848,"createPickerRow":13849,"assessment":13850,"Ġasynchronously":13851,"friends":13852,"Handshake":13853,"MultiPageMessageFlowEditor":13854,"Binary":13855,"juno":13856,"Ġreconciliation":13857,"ĠSDSS":13858,"Ġautocom":13859,"getBuildPaths":13860,"autoconfigure":13861,"Terminal":13862,"ĠAUTH":13863,"survey":13864,"pumpEvents":13865,"ContentTypeFilter":13866,"Gradient":13867,"ORIZATION":13868,"MetricFilterAutoConfiguration":13869,"ydeMBP":13870,"gresql":13871,"NioClientBoss":13872,"SQLError":13873,"favoriteAction":13874,"ĠEVENTS":13875,"PressureMesosTest":13876,"olerance":13877,"AbsListView":13878,"JLineShell":13879,"quantal":13880,"ĠDHydeMBP":13881,"NoNodeException":13882,"Ġswitched":13883,"analiticalmodel":13884,"Ġreservations":13885,"AbstractPagePart":13886,"AbstractHandlerMethodAdapter":13887,"MethodAndArgsCaller":13888,"RunBefores":13889,"logbufsecs":13890,"ActionCoordinator":13891,"Ġ1680191488":13892,"ĠPersistentVolumeTest":13893,"PartRenderingEngine":13894,"SDKBuildPathContributor":13895,"#//":13896,"026":13897,"515":13898,"548":13899,"644":13900,"646":13901,"828":13902,"836":13903,"879":13904,"955":13905,"925":13906,":_":13907,";)":13908,"AJ":13909,"Center":13910,"Cassandra":13911,"Dem":13912,"Disp":13913,"EM":13914,"Fit":13915,"Feed":13916,"Fruit":13917,"GC":13918,"HR":13919,"Headers":13920,"IFI":13921,"ILD":13922,"IVE":13923,"Ljava":13924,"LDM":13925,"Mu":13926,"MAL":13927,
[...]
